/* Copyright 2020 The TensorFlow Authors. All Rights Reserved.

Licensed under the Apache License, Version 2.0 (the "License");
you may not use this file except in compliance with the License.
You may obtain a copy of the License at

    http://www.apache.org/licenses/LICENSE-2.0

Unless required by applicable law or agreed to in writing, software
distributed under the License is distributed on an "AS IS" BASIS,
WITHOUT WARRANTIES OR CONDITIONS OF ANY KIND, either express or implied.
See the License for the specific language governing permissions and
limitations under the License.
==============================================================================*/

// This is a standard TensorFlow Lite FlatBuffer model file that has been
// converted into a C data array, so it can be easily compiled into a binary
// for devices that don't have a file system. It was created using the command:
// xxd -i model.tflite > model.cc

#include "micro_features_model.h"

// We need to keep the data array aligned on some architectures.
#ifdef __has_attribute
#define HAVE_ATTRIBUTE(x) __has_attribute(x)
#else
#define HAVE_ATTRIBUTE(x) 0
#endif
#if HAVE_ATTRIBUTE(aligned) || (defined(__GNUC__) && !defined(__clang__))
#define DATA_ALIGN_ATTRIBUTE __attribute__((aligned(4)))
#else
#define DATA_ALIGN_ATTRIBUTE
#endif

const unsigned char g_model[] DATA_ALIGN_ATTRIBUTE = {
  0x20, 0x00, 0x00, 0x00, 0x54, 0x46, 0x4c, 0x33, 0x00, 0x00, 0x00, 0x00,
  0x14, 0x00, 0x20, 0x00, 0x1c, 0x00, 0x18, 0x00, 0x14, 0x00, 0x10, 0x00,
  0x0c, 0x00, 0x00, 0x00, 0x08, 0x00, 0x04, 0x00, 0x14, 0x00, 0x00, 0x00,
  0x1c, 0x00, 0x00, 0x00, 0x80, 0x00, 0x00, 0x00, 0xd8, 0x00, 0x00, 0x00,
  0xd8, 0x40, 0x00, 0x00, 0xe8, 0x40, 0x00, 0x00, 0xe8, 0x5e, 0x00, 0x00,
  0x03, 0x00, 0x00, 0x00, 0x01, 0x00, 0x00, 0x00, 0x04, 0x00, 0x00, 0x00,
  0x4a, 0xbe, 0xff, 0xff, 0x0c, 0x00, 0x00, 0x00, 0x1c, 0x00, 0x00, 0x00,
  0x38, 0x00, 0x00, 0x00, 0x0f, 0x00, 0x00, 0x00, 0x73, 0x65, 0x72, 0x76,
  0x69, 0x6e, 0x67, 0x5f, 0x64, 0x65, 0x66, 0x61, 0x75, 0x6c, 0x74, 0x00,
  0x01, 0x00, 0x00, 0x00, 0x04, 0x00, 0x00, 0x00, 0x9c, 0xff, 0xff, 0xff,
  0x1a, 0x00, 0x00, 0x00, 0x04, 0x00, 0x00, 0x00, 0x05, 0x00, 0x00, 0x00,
  0x64, 0x65, 0x6e, 0x73, 0x65, 0x00, 0x00, 0x00, 0x01, 0x00, 0x00, 0x00,
  0x04, 0x00, 0x00, 0x00, 0xae, 0xbf, 0xff, 0xff, 0x04, 0x00, 0x00, 0x00,
  0x05, 0x00, 0x00, 0x00, 0x69, 0x6e, 0x70, 0x75, 0x74, 0x00, 0x00, 0x00,
  0x02, 0x00, 0x00, 0x00, 0x34, 0x00, 0x00, 0x00, 0x04, 0x00, 0x00, 0x00,
  0xdc, 0xff, 0xff, 0xff, 0x1d, 0x00, 0x00, 0x00, 0x04, 0x00, 0x00, 0x00,
  0x13, 0x00, 0x00, 0x00, 0x43, 0x4f, 0x4e, 0x56, 0x45, 0x52, 0x53, 0x49,
  0x4f, 0x4e, 0x5f, 0x4d, 0x45, 0x54, 0x41, 0x44, 0x41, 0x54, 0x41, 0x00,
  0x08, 0x00, 0x0c, 0x00, 0x08, 0x00, 0x04, 0x00, 0x08, 0x00, 0x00, 0x00,
  0x1c, 0x00, 0x00, 0x00, 0x04, 0x00, 0x00, 0x00, 0x13, 0x00, 0x00, 0x00,
  0x6d, 0x69, 0x6e, 0x5f, 0x72, 0x75, 0x6e, 0x74, 0x69, 0x6d, 0x65, 0x5f,
  0x76, 0x65, 0x72, 0x73, 0x69, 0x6f, 0x6e, 0x00, 0x1e, 0x00, 0x00, 0x00,
  0xfc, 0x3f, 0x00, 0x00, 0xf4, 0x3f, 0x00, 0x00, 0xdc, 0x3f, 0x00, 0x00,
  0xb4, 0x3f, 0x00, 0x00, 0x24, 0x3f, 0x00, 0x00, 0x94, 0x3e, 0x00, 0x00,
  0x84, 0x0e, 0x00, 0x00, 0x34, 0x0e, 0x00, 0x00, 0xe4, 0x0d, 0x00, 0x00,
  0xd4, 0x0c, 0x00, 0x00, 0xc4, 0x04, 0x00, 0x00, 0x34, 0x04, 0x00, 0x00,
  0x04, 0x03, 0x00, 0x00, 0xd4, 0x02, 0x00, 0x00, 0xa4, 0x02, 0x00, 0x00,
  0x14, 0x02, 0x00, 0x00, 0xe4, 0x00, 0x00, 0x00, 0xdc, 0x00, 0x00, 0x00,
  0xd4, 0x00, 0x00, 0x00, 0xcc, 0x00, 0x00, 0x00, 0xc4, 0x00, 0x00, 0x00,
  0xbc, 0x00, 0x00, 0x00, 0xb4, 0x00, 0x00, 0x00, 0xac, 0x00, 0x00, 0x00,
  0xa4, 0x00, 0x00, 0x00, 0x9c, 0x00, 0x00, 0x00, 0x94, 0x00, 0x00, 0x00,
  0x8c, 0x00, 0x00, 0x00, 0x6c, 0x00, 0x00, 0x00, 0x04, 0x00, 0x00, 0x00,
  0x9a, 0xc0, 0xff, 0xff, 0x04, 0x00, 0x00, 0x00, 0x58, 0x00, 0x00, 0x00,
  0x0c, 0x00, 0x00, 0x00, 0x08, 0x00, 0x0e, 0x00, 0x08, 0x00, 0x04, 0x00,
  0x08, 0x00, 0x00, 0x00, 0x10, 0x00, 0x00, 0x00, 0x28, 0x00, 0x00, 0x00,
  0x00, 0x00, 0x06, 0x00, 0x08, 0x00, 0x04, 0x00, 0x06, 0x00, 0x00, 0x00,
  0x04, 0x00, 0x00, 0x00, 0x01, 0x00, 0x00, 0x00, 0xeb, 0x03, 0x00, 0x00,
  0x00, 0x00, 0x0a, 0x00, 0x10, 0x00, 0x0c, 0x00, 0x08, 0x00, 0x04, 0x00,
  0x0a, 0x00, 0x00, 0x00, 0x02, 0x00, 0x00, 0x00, 0x02, 0x00, 0x00, 0x00,
  0x04, 0x00, 0x00, 0x00, 0x06, 0x00, 0x00, 0x00, 0x32, 0x2e, 0x31, 0x32,
  0x2e, 0x30, 0x00, 0x00, 0xfe, 0xc0, 0xff, 0xff, 0x04, 0x00, 0x00, 0x00,
  0x10, 0x00, 0x00, 0x00, 0x31, 0x2e, 0x31, 0x34, 0x2e, 0x30, 0x00, 0x00,
  0x00, 0x00, 0x00, 0x00, 0x00, 0x00, 0x00, 0x00, 0xb8, 0xa3, 0xff, 0xff,
  0xbc, 0xa3, 0xff, 0xff, 0xc0, 0xa3, 0xff, 0xff, 0xc4, 0xa3, 0xff, 0xff,
  0xc8, 0xa3, 0xff, 0xff, 0xcc, 0xa3, 0xff, 0xff, 0xd0, 0xa3, 0xff, 0xff,
  0xd4, 0xa3, 0xff, 0xff, 0xd8, 0xa3, 0xff, 0xff, 0xdc, 0xa3, 0xff, 0xff,
  0xe0, 0xa3, 0xff, 0xff, 0x46, 0xc1, 0xff, 0xff, 0x04, 0x00, 0x00, 0x00,
  0x20, 0x01, 0x00, 0x00, 0x7f, 0x87, 0x8d, 0x11, 0x2c, 0x92, 0x63, 0x7d,
  0x7f, 0xff, 0x18, 0x3a, 0x7f, 0x5c, 0x3e, 0x21, 0x2e, 0x27, 0xf9, 0x36,
  0xd2, 0x90, 0xa3, 0x0a, 0x4b, 0x7f, 0x08, 0x31, 0x65, 0xb7, 0xbe, 0x7f,
  0x4b, 0x98, 0x5f, 0x0b, 0xb8, 0x51, 0x9e, 0x2c, 0x86, 0x2b, 0x81, 0x36,
  0x89, 0xdb, 0x2d, 0x9f, 0x1a, 0x30, 0x0f, 0xdd, 0xd8, 0x7f, 0x0b, 0xf8,
  0xbe, 0xd2, 0xe3, 0x10, 0x6f, 0x81, 0x1e, 0x5b, 0x13, 0xd7, 0x44, 0x4f,
  0xe3, 0xf3, 0x7f, 0x24, 0x4f, 0x32, 0x07, 0x12, 0x62, 0x7f, 0x5a, 0x1b,
  0x68, 0x58, 0x9b, 0x8c, 0x1a, 0x93, 0xdf, 0x9a, 0xd1, 0x7f, 0x2f, 0xf3,
  0xc3, 0x70, 0x2c, 0xb5, 0x0e, 0x75, 0x81, 0x64, 0x07, 0x8e, 0x07, 0x0e,
  0xd9, 0x81, 0xb4, 0xb9, 0x52, 0x81, 0x21, 0x20, 0xfa, 0xa0, 0xfc, 0xe4,
  0x88, 0x92, 0x4b, 0x7f, 0xcd, 0xd0, 0x10, 0xa8, 0x36, 0x47, 0x10, 0x1c,
  0xa1, 0x21, 0x30, 0x9f, 0x2c, 0x7f, 0x14, 0xc9, 0xb2, 0x7f, 0xf7, 0xb9,
  0xd3, 0xbe, 0xe4, 0x30, 0xb1, 0x3b, 0x59, 0xd2, 0xa8, 0x7a, 0x0f, 0x81,
  0x7e, 0x3b, 0xd0, 0x60, 0xdf, 0xc3, 0xd4, 0xd7, 0x09, 0x81, 0x8d, 0x61,
  0xa6, 0x9a, 0xaa, 0x81, 0xaa, 0x91, 0xe3, 0xb8, 0x7f, 0x68, 0x5c, 0x52,
  0x61, 0xa3, 0xb3, 0xfd, 0x02, 0x27, 0x07, 0xe7, 0xe4, 0xe8, 0x7f, 0x05,
  0x31, 0x0a, 0x7f, 0x03, 0x28, 0x24, 0x1d, 0xed, 0x0a, 0x2a, 0xa5, 0xf2,
  0xd5, 0xee, 0xff, 0xcb, 0xfe, 0xf7, 0x81, 0xd2, 0x35, 0x81, 0xb1, 0xe7,
  0x1a, 0x3a, 0x74, 0xa6, 0xa1, 0xb6, 0xe1, 0x3b, 0xc3, 0xdf, 0xf6, 0x2d,
  0x7f, 0xcd, 0xc1, 0x66, 0x82, 0x29, 0x81, 0xa7, 0x35, 0x02, 0xc2, 0x69,
  0x1c, 0x92, 0x14, 0xb8, 0xeb, 0x20, 0x7f, 0xda, 0xc0, 0x81, 0xae, 0xd7,
  0x5b, 0xb0, 0x57, 0x8f, 0xdc, 0xed, 0xb4, 0xe0, 0x15, 0xb0, 0x7f, 0xf3,
  0x96, 0xd0, 0xbd, 0xe5, 0x51, 0x08, 0x81, 0x64, 0xd5, 0xc7, 0x2b, 0x83,
  0xd7, 0xf4, 0x90, 0xf2, 0x7f, 0x93, 0xc2, 0x9a, 0x2f, 0x0d, 0x3c, 0xd0,
  0x0f, 0xfe, 0x03, 0x7f, 0x72, 0xc2, 0xff, 0xff, 0x04, 0x00, 0x00, 0x00,
  0x80, 0x00, 0x00, 0x00, 0xfc, 0xff, 0xff, 0xff, 0x05, 0x00, 0x00, 0x00,
  0x00, 0x00, 0x00, 0x00, 0xb0, 0xff, 0xff, 0xff, 0x35, 0x00, 0x00, 0x00,
  0xfc, 0xff, 0xff, 0xff, 0x0c, 0x00, 0x00, 0x00, 0x03, 0x00, 0x00, 0x00,
  0x02, 0x00, 0x00, 0x00, 0x02, 0x00, 0x00, 0x00, 0xeb, 0xff, 0xff, 0xff,
  0xf5, 0xff, 0xff, 0xff, 0xf7, 0xff, 0xff, 0xff, 0x0f, 0x00, 0x00, 0x00,
  0xe9, 0xff, 0xff, 0xff, 0x1d, 0x00, 0x00, 0x00, 0x32, 0x00, 0x00, 0x00,
  0x06, 0x00, 0x00, 0x00, 0xf7, 0xff, 0xff, 0xff, 0x0c, 0x00, 0x00, 0x00,
  0xfc, 0xff, 0xff, 0xff, 0xdf, 0xff, 0xff, 0xff, 0xf5, 0xff, 0xff, 0xff,
  0xd1, 0xff, 0xff, 0xff, 0x02, 0x00, 0x00, 0x00, 0x08, 0x00, 0x00, 0x00,
  0xff, 0xff, 0xff, 0xff, 0x09, 0x00, 0x00, 0x00, 0x1c, 0x00, 0x00, 0x00,
  0xf2, 0xff, 0xff, 0xff, 0x43, 0x00, 0x00, 0x00, 0x10, 0x00, 0x00, 0x00,
  0xfe, 0xc2, 0xff, 0xff, 0x04, 0x00, 0x00, 0x00, 0x20, 0x00, 0x00, 0x00,
  0x80, 0x80, 0x81, 0x80, 0x8b, 0x81, 0x81, 0x80, 0x80, 0x81, 0x80, 0x83,
  0x82, 0x81, 0x80, 0x81, 0x80, 0x81, 0xc3, 0x80, 0x80, 0x80, 0x7f, 0x82,
  0x80, 0x84, 0x81, 0x87, 0x83, 0x81, 0x81, 0x80, 0x2a, 0xc3, 0xff, 0xff,
  0x04, 0x00, 0x00, 0x00, 0x20, 0x00, 0x00, 0x00, 0xf0, 0x8a, 0x42, 0x0b,
  0x74, 0x4b, 0x58, 0xb8, 0x80, 0x62, 0xe2, 0x71, 0x61, 0x30, 0x1f, 0x65,
  0xcb, 0x60, 0x7e, 0xc9, 0x9a, 0xa5, 0x7f, 0x66, 0x4e, 0x71, 0x47, 0x78,
  0x6f, 0x60, 0x5a, 0xd9, 0x56, 0xc3, 0xff, 0xff, 0x04, 0x00, 0x00, 0x00,
  0x20, 0x01, 0x00, 0x00, 0xd2, 0x95, 0x23, 0x4f, 0x81, 0x48, 0x30, 0x2e,
  0x51, 0x90, 0x7f, 0xe3, 0xec, 0xac, 0x49, 0x71, 0xfb, 0x14, 0x54, 0x4d,
  0xcb, 0x4c, 0x51, 0x34, 0x6a, 0xd7, 0x81, 0x2d, 0x29, 0x05, 0x6f, 0x44,
  0x1c, 0xba, 0x16, 0x15, 0xd4, 0x43, 0xf5, 0xe9, 0x6c, 0x07, 0x06, 0x32,
  0x9a, 0x59, 0x22, 0x7f, 0xbb, 0x50, 0x2d, 0x1f, 0x0c, 0x30, 0x86, 0x7f,
  0x2c, 0xf1, 0x48, 0xfc, 0x35, 0x07, 0x59, 0x7c, 0xd1, 0xfd, 0xf6, 0xc8,
  0x62, 0xbc, 0x7f, 0xf2, 0x2c, 0x0c, 0x16, 0xd6, 0x86, 0x8a, 0xd4, 0x49,
  0x7f, 0x20, 0x6e, 0x54, 0x18, 0x81, 0xe4, 0xd7, 0x7f, 0x7f, 0xce, 0x18,
  0x81, 0x63, 0x41, 0x08, 0x17, 0xa9, 0x16, 0x68, 0x16, 0xf4, 0xf9, 0x7f,
  0xee, 0xf7, 0x6c, 0xf6, 0xd6, 0x52, 0x08, 0x77, 0xf5, 0x7f, 0x30, 0xdf,
  0x2f, 0x2c, 0x4b, 0x30, 0x28, 0x99, 0xd2, 0x93, 0x4c, 0xc3, 0x40, 0x3d,
  0x29, 0x82, 0x4c, 0x7f, 0x2b, 0xba, 0x97, 0x19, 0x7a, 0xa4, 0x37, 0x5c,
  0x7f, 0xb6, 0x03, 0xf7, 0xc3, 0x3e, 0x4f, 0xc4, 0x38, 0x75, 0x7f, 0xe1,
  0xb3, 0x15, 0xf3, 0xfe, 0x21, 0xdb, 0x7f, 0xf6, 0xde, 0xcb, 0x3d, 0xf9,
  0x11, 0x00, 0xa8, 0x1d, 0x78, 0x9e, 0x24, 0x48, 0xe8, 0xdd, 0xe5, 0xfc,
  0x60, 0x7a, 0xbc, 0x5e, 0x81, 0x63, 0xbb, 0xc0, 0xab, 0x0c, 0x31, 0x57,
  0xbd, 0x51, 0x6b, 0xb4, 0x43, 0x81, 0x1f, 0xda, 0x3e, 0x7f, 0xce, 0x6a,
  0x3d, 0x81, 0xe7, 0xe9, 0xe1, 0x29, 0x7f, 0x60, 0xfe, 0x18, 0x44, 0x81,
  0x7b, 0xb9, 0xcf, 0x94, 0xb4, 0x21, 0x2f, 0x81, 0xd7, 0x03, 0x45, 0x7f,
  0x1b, 0xa1, 0x38, 0x09, 0xb5, 0xf4, 0xf4, 0x52, 0x62, 0x1f, 0x45, 0x7f,
  0xb7, 0xab, 0x4d, 0x6c, 0x99, 0x30, 0x19, 0x0e, 0x4d, 0xcf, 0xb2, 0x49,
  0x61, 0xc7, 0x4a, 0xac, 0xca, 0xa6, 0x3b, 0xcd, 0x7f, 0x90, 0x81, 0x54,
  0xae, 0x05, 0xe5, 0x55, 0x7f, 0xa5, 0x22, 0x47, 0xd4, 0x81, 0x34, 0x23,
  0x66, 0x00, 0x81, 0x10, 0x85, 0x6d, 0x98, 0x5e, 0x5b, 0x4b, 0x1a, 0xf5,
  0x27, 0x7f, 0x2c, 0xee, 0x82, 0xc4, 0xff, 0xff, 0x04, 0x00, 0x00, 0x00,
  0x80, 0x00, 0x00, 0x00, 0x32, 0x00, 0x00, 0x00, 0xd8, 0xff, 0xff, 0xff,
  0x44, 0x00, 0x00, 0x00, 0x5d, 0x00, 0x00, 0x00, 0xf7, 0xff, 0xff, 0xff,
  0x19, 0x00, 0x00, 0x00, 0x3f, 0x00, 0x00, 0x00, 0x9f, 0x00, 0x00, 0x00,
  0x03, 0x01, 0x00, 0x00, 0x46, 0x00, 0x00, 0x00, 0x44, 0x00, 0x00, 0x00,
  0x1c, 0x00, 0x00, 0x00, 0xf5, 0xff, 0xff, 0xff, 0x68, 0x00, 0x00, 0x00,
  0x51, 0x00, 0x00, 0x00, 0xa1, 0x00, 0x00, 0x00, 0x29, 0x00, 0x00, 0x00,
  0xce, 0xff, 0xff, 0xff, 0x58, 0x00, 0x00, 0x00, 0x46, 0x00, 0x00, 0x00,
  0x22, 0x00, 0x00, 0x00, 0x52, 0x00, 0x00, 0x00, 0xf0, 0xff, 0xff, 0xff,
  0x1a, 0x00, 0x00, 0x00, 0xd6, 0xff, 0xff, 0xff, 0xfc, 0xff, 0xff, 0xff,
  0xe7, 0xff, 0xff, 0xff, 0xde, 0xff, 0xff, 0xff, 0x21, 0x00, 0x00, 0x00,
  0x17, 0x00, 0x00, 0x00, 0x80, 0x00, 0x00, 0x00, 0x7f, 0x00, 0x00, 0x00,
  0x0e, 0xc5, 0xff, 0xff, 0x04, 0x00, 0x00, 0x00, 0x00, 0x08, 0x00, 0x00,
  0x77, 0xcf, 0x61, 0xb0, 0xfa, 0x54, 0x3c, 0x6e, 0x72, 0x01, 0x81, 0xf7,
  0xf1, 0xcd, 0x23, 0xef, 0x13, 0x27, 0x1b, 0xe1, 0xdf, 0x0f, 0x00, 0x3a,
  0xf8, 0x0b, 0x46, 0x1e, 0xf6, 0x05, 0xac, 0xf9, 0x16, 0xd1, 0x57, 0xa6,
  0x0d, 0x0a, 0x16, 0xb0, 0x7f, 0x06, 0xbf, 0xeb, 0xe8, 0x69, 0xcc, 0xf7,
  0x4e, 0xcc, 0x4f, 0xe3, 0xd0, 0xd4, 0x00, 0x3c, 0xef, 0x30, 0xd2, 0xe1,
  0x70, 0x2c, 0xc8, 0x6d, 0xf0, 0x81, 0xe3, 0x64, 0x01, 0xd2, 0xd3, 0x9f,
  0x0c, 0xf2, 0x4f, 0xd8, 0x45, 0x13, 0xde, 0xd7, 0x42, 0x13, 0xf5, 0x15,
  0xd5, 0x69, 0x00, 0xd1, 0xd5, 0x0b, 0x1d, 0xfa, 0xf4, 0xfb, 0xe1, 0x09,
  0x12, 0x2f, 0x16, 0xf3, 0x5b, 0xfc, 0xfb, 0x42, 0x1b, 0xf9, 0x4a, 0x39,
  0x10, 0xfb, 0xff, 0x00, 0x19, 0x0d, 0x16, 0x26, 0x06, 0xd2, 0x00, 0x09,
  0x7f, 0x04, 0xfa, 0xf8, 0xfc, 0x32, 0x30, 0xcd, 0x39, 0x34, 0x19, 0xfd,
  0xee, 0xec, 0x19, 0x55, 0x5b, 0xff, 0xd8, 0x37, 0x24, 0xee, 0x5f, 0xd1,
  0x31, 0xe4, 0x36, 0xf3, 0xf7, 0x23, 0x12, 0xe7, 0x5c, 0x2c, 0xf3, 0x09,
  0x15, 0x25, 0x7f, 0x01, 0x54, 0xb3, 0x1e, 0xfb, 0x5d, 0xe3, 0x30, 0x9a,
  0x0b, 0x33, 0xf0, 0xe5, 0x07, 0xb2, 0xd0, 0x94, 0xbe, 0x02, 0x62, 0xef,
  0xd6, 0xb9, 0xff, 0xf8, 0x37, 0xe5, 0x71, 0xfc, 0x7e, 0x0e, 0x81, 0x31,
  0x28, 0x1c, 0xe3, 0x40, 0xee, 0x01, 0x2b, 0x68, 0x7f, 0xf8, 0xcf, 0x13,
  0xe6, 0xe6, 0x14, 0xf0, 0xdb, 0xf6, 0x04, 0xea, 0x06, 0x2c, 0x00, 0x1e,
  0x21, 0x37, 0x0f, 0xfd, 0x08, 0x0a, 0x68, 0xe0, 0xf4, 0xe4, 0xc7, 0x38,
  0x7f, 0xf0, 0xdd, 0x16, 0x4e, 0x0d, 0x4f, 0x18, 0x21, 0xeb, 0xf4, 0x2e,
  0x0c, 0x02, 0xeb, 0x34, 0x0c, 0x07, 0x0d, 0xe8, 0x11, 0xee, 0xf7, 0x27,
  0xec, 0xe6, 0x64, 0x75, 0xf2, 0xa3, 0xe9, 0xf5, 0x45, 0xfa, 0x0e, 0xf7,
  0x1c, 0xe3, 0xf6, 0xfd, 0xf5, 0xe2, 0xe6, 0x7f, 0xe2, 0xed, 0xed, 0xfa,
  0xee, 0xf8, 0x3e, 0xe5, 0xd5, 0xf5, 0xfc, 0x44, 0x18, 0xd9, 0x19, 0x10,
  0xec, 0x13, 0xd2, 0x00, 0x6c, 0xf2, 0xfa, 0x0d, 0xfd, 0xf6, 0xfd, 0x51,
  0xec, 0xdb, 0x0e, 0xe8, 0xd8, 0x00, 0xf8, 0xd1, 0x03, 0xf8, 0x49, 0x15,
  0xec, 0xf4, 0x23, 0x7f, 0x19, 0x38, 0x3d, 0xf8, 0x1f, 0xb6, 0xe0, 0xe0,
  0x21, 0x05, 0x07, 0x1b, 0x7f, 0xff, 0x3f, 0xe1, 0x09, 0x0b, 0x61, 0x69,
  0xef, 0x48, 0x05, 0xf0, 0x03, 0x12, 0x5d, 0x36, 0x2e, 0x12, 0xe0, 0xff,
  0xed, 0xe0, 0xb7, 0xe5, 0x67, 0xf1, 0xc1, 0x05, 0x68, 0xe8, 0xdf, 0xc6,
  0xc2, 0xda, 0xdc, 0x0c, 0xed, 0xe5, 0xcc, 0x7f, 0x1a, 0xdb, 0xf4, 0xdf,
  0x08, 0x15, 0x13, 0xca, 0xe5, 0x1d, 0xf7, 0xe5, 0x53, 0x26, 0x19, 0x7e,
  0x1d, 0x87, 0xcb, 0x3e, 0x25, 0x05, 0xd8, 0xbd, 0x81, 0x04, 0xe3, 0xf7,
  0xed, 0x24, 0xe4, 0xcd, 0x20, 0xe4, 0xe6, 0x32, 0xf8, 0x10, 0x1c, 0x2b,
  0xdc, 0xec, 0x2d, 0xe4, 0x52, 0x09, 0xec, 0xe4, 0x60, 0x3d, 0x01, 0xce,
  0xdd, 0x5d, 0x0f, 0x60, 0xf3, 0x40, 0xe7, 0xd5, 0x47, 0xb6, 0x70, 0x81,
  0x1e, 0x03, 0xfe, 0xd8, 0x00, 0x43, 0x22, 0xe5, 0x5f, 0x00, 0x6d, 0x2a,
  0xd8, 0xd6, 0xcd, 0x63, 0x02, 0x31, 0xfc, 0x21, 0xec, 0xcb, 0xeb, 0x7d,
  0x9a, 0xe8, 0x03, 0xfe, 0xf9, 0x5b, 0x61, 0xd8, 0x0f, 0xfd, 0x0a, 0xe3,
  0x3c, 0x00, 0xff, 0x45, 0x0a, 0xfe, 0x2e, 0x1e, 0x7f, 0x03, 0x69, 0x40,
  0xbe, 0x8a, 0x15, 0x20, 0x3e, 0x39, 0x21, 0xa2, 0x81, 0x18, 0xb5, 0xf8,
  0xd7, 0x3d, 0xdd, 0xfc, 0x36, 0xca, 0x3e, 0xe6, 0x04, 0x2a, 0x25, 0x51,
  0xd5, 0x2b, 0x65, 0xdf, 0xe8, 0x1b, 0xe4, 0x41, 0x56, 0xcd, 0xf7, 0x1f,
  0xf7, 0x16, 0x02, 0x7f, 0x3c, 0x18, 0xb5, 0xef, 0x17, 0x04, 0x61, 0x01,
  0xe8, 0xdf, 0x00, 0xd1, 0x00, 0x31, 0x00, 0x05, 0x0c, 0x4b, 0xe8, 0xfa,
  0xe7, 0x0e, 0xf0, 0xe9, 0xe0, 0xad, 0x2c, 0x0e, 0x2d, 0x30, 0x28, 0x32,
  0x81, 0x1e, 0x89, 0x08, 0xef, 0x1b, 0xfb, 0xa7, 0xfb, 0xcd, 0xea, 0xd2,
  0xd2, 0x39, 0xef, 0x14, 0x1b, 0xeb, 0x3f, 0xf2, 0x04, 0x38, 0xdc, 0x4b,
  0xf3, 0x30, 0xd4, 0xfc, 0xe9, 0xfb, 0xd6, 0xb7, 0x48, 0x03, 0x7f, 0x7d,
  0x30, 0x23, 0x24, 0x35, 0x27, 0x40, 0x27, 0xf0, 0xeb, 0x02, 0x00, 0x75,
  0xd0, 0x1a, 0xdd, 0x34, 0x0a, 0xcc, 0xd1, 0xf3, 0xf2, 0xe4, 0x06, 0xcc,
  0x1c, 0x51, 0x17, 0x24, 0xde, 0x17, 0x17, 0x33, 0x6e, 0xe3, 0x42, 0x5c,
  0x7f, 0x58, 0x1e, 0xca, 0x30, 0x04, 0x20, 0x0a, 0x40, 0xef, 0xea, 0x36,
  0x19, 0x36, 0xd0, 0x2b, 0xdd, 0xe6, 0x77, 0x17, 0x52, 0xe5, 0x0c, 0xe5,
  0x7f, 0x13, 0x71, 0xf3, 0x09, 0x3a, 0x0b, 0xf2, 0xe4, 0xf0, 0xf1, 0x15,
  0xf6, 0xce, 0x00, 0x14, 0xe1, 0x04, 0x10, 0x01, 0x09, 0x08, 0xbc, 0x2f,
  0xef, 0x40, 0x35, 0xdb, 0x07, 0xf1, 0x0d, 0x2b, 0xe9, 0xec, 0x7f, 0x08,
  0x0d, 0xf5, 0x1a, 0xfb, 0x41, 0xd7, 0xfd, 0xbd, 0x04, 0x00, 0x00, 0xeb,
  0x2e, 0xdb, 0x00, 0x2e, 0x1d, 0x21, 0x7b, 0xf4, 0x56, 0xc4, 0x6b, 0x1b,
  0x39, 0x12, 0x15, 0x81, 0xae, 0x22, 0x5a, 0x00, 0xf4, 0xe7, 0x0c, 0x20,
  0xb0, 0xe7, 0x38, 0x12, 0xf7, 0xf4, 0xff, 0x53, 0x4d, 0xf0, 0xee, 0x1a,
  0x01, 0xf2, 0x2c, 0x00, 0x16, 0x7f, 0x16, 0xdc, 0x16, 0x0b, 0x20, 0x6f,
  0xf6, 0x0c, 0xed, 0xea, 0x3a, 0x0d, 0xf2, 0xde, 0x12, 0xf6, 0x30, 0xd9,
  0xff, 0xf8, 0x00, 0xc9, 0xf5, 0xff, 0x18, 0x21, 0x49, 0x1a, 0xf0, 0x0e,
  0xcc, 0x7f, 0xf3, 0xf2, 0x58, 0xbe, 0xf9, 0x74, 0xd3, 0xd3, 0xe7, 0x0a,
  0x1e, 0x49, 0xd1, 0xfb, 0x41, 0x4c, 0xef, 0xc2, 0x26, 0xd0, 0x12, 0xd1,
  0x47, 0xda, 0x09, 0x1b, 0x35, 0x25, 0x42, 0x44, 0xdc, 0x6a, 0xc7, 0x32,
  0xec, 0xf4, 0x0f, 0x12, 0x7f, 0x09, 0xd0, 0xf4, 0xfe, 0xd4, 0xd7, 0x39,
  0x08, 0x39, 0x1f, 0x04, 0xdb, 0x42, 0x0c, 0xd6, 0x04, 0xff, 0xfc, 0x30,
  0x1c, 0xe0, 0xb6, 0xd9, 0xf1, 0x81, 0xe4, 0xe4, 0xf9, 0x17, 0x2c, 0xf1,
  0x46, 0x39, 0xe1, 0x07, 0xf0, 0x50, 0xea, 0xa7, 0xec, 0xe0, 0x01, 0xd3,
  0xe5, 0x0c, 0x00, 0x11, 0x61, 0xeb, 0xde, 0xf4, 0xed, 0x27, 0x32, 0x40,
  0x13, 0x9e, 0xf7, 0x7f, 0xfc, 0xcb, 0x21, 0x78, 0xdd, 0xfe, 0x62, 0xee,
  0x07, 0xe8, 0x1f, 0x45, 0xfe, 0xda, 0x29, 0xe0, 0xe1, 0x22, 0x00, 0x00,
  0xd2, 0xf0, 0xf4, 0x13, 0x42, 0xef, 0x0c, 0xd4, 0x05, 0x31, 0x6e, 0xd1,
  0x66, 0xc8, 0xf4, 0x54, 0xb4, 0x34, 0xda, 0x33, 0x17, 0x81, 0xcc, 0x51,
  0x03, 0x06, 0xe7, 0xbd, 0xd1, 0x1e, 0x07, 0xe6, 0x02, 0xf9, 0xd3, 0x5c,
  0x66, 0x78, 0xfc, 0xae, 0x19, 0x81, 0x4e, 0x20, 0x09, 0x01, 0x15, 0x4e,
  0x60, 0x1c, 0xff, 0xe8, 0xf9, 0x70, 0x1a, 0xe9, 0x06, 0xe9, 0x03, 0xdc,
  0xf9, 0xfa, 0x00, 0x52, 0xe2, 0x07, 0x41, 0xfe, 0xfd, 0x4d, 0x0f, 0x21,
  0xea, 0x7f, 0xfa, 0xdc, 0xec, 0xdd, 0xf7, 0x46, 0xdd, 0xe5, 0xd6, 0xfb,
  0x23, 0xe2, 0xe7, 0xec, 0x02, 0xf6, 0x2b, 0xf8, 0x0d, 0xfd, 0x3f, 0xf8,
  0xf2, 0xfc, 0xfd, 0x54, 0xeb, 0xf9, 0x23, 0x57, 0xed, 0xb0, 0xe1, 0x7f,
  0xee, 0xde, 0xf6, 0x7c, 0xf6, 0x19, 0x77, 0x0c, 0xf0, 0x00, 0x08, 0xe6,
  0x16, 0xec, 0x60, 0xe6, 0xfd, 0x61, 0x00, 0x03, 0xdb, 0x21, 0x0e, 0x52,
  0x10, 0x14, 0xf6, 0x56, 0xf6, 0x7f, 0xf7, 0x04, 0x24, 0x99, 0x23, 0x19,
  0x18, 0xfb, 0x1c, 0xfd, 0x45, 0xd5, 0xda, 0xf1, 0x51, 0x29, 0x0b, 0x09,
  0x14, 0xfa, 0x1e, 0xc0, 0x63, 0x1d, 0x60, 0xe7, 0x46, 0x2b, 0x59, 0x04,
  0x06, 0x14, 0xf7, 0xce, 0x3b, 0xef, 0xfb, 0x11, 0xe8, 0xe6, 0x59, 0x7f,
  0xf1, 0x4a, 0xea, 0xff, 0x36, 0x52, 0x20, 0xed, 0x27, 0xef, 0x04, 0xf3,
  0xe9, 0x02, 0xe9, 0xf6, 0x3f, 0x1d, 0x0b, 0x4d, 0x2b, 0x50, 0xfc, 0xbd,
  0x33, 0xe7, 0x3d, 0xff, 0x79, 0xdb, 0x10, 0x0c, 0x03, 0xd3, 0x06, 0x7f,
  0x14, 0x04, 0x65, 0xc8, 0x17, 0xe0, 0x24, 0xe5, 0xf5, 0x17, 0xeb, 0xf6,
  0x18, 0x55, 0x61, 0xe0, 0xc4, 0x27, 0x7f, 0x29, 0xeb, 0x4f, 0x38, 0xcc,
  0xb8, 0x2f, 0xcc, 0x19, 0xd4, 0x5f, 0xe7, 0x15, 0xa2, 0x0a, 0xfb, 0xda,
  0x1a, 0x09, 0x01, 0x0e, 0x2d, 0x12, 0xdd, 0x18, 0xf4, 0xf9, 0xca, 0x4f,
  0x0b, 0x7f, 0xd5, 0xfa, 0x25, 0xed, 0x50, 0xcd, 0xf5, 0xe1, 0x5e, 0x51,
  0xd3, 0xf3, 0xe6, 0xc4, 0xe4, 0x33, 0x45, 0xd8, 0x14, 0xe5, 0x00, 0xee,
  0x03, 0x30, 0xfe, 0xff, 0x2d, 0x4e, 0x55, 0xfa, 0x12, 0xba, 0x51, 0x5a,
  0xfa, 0xf0, 0x1d, 0x4c, 0x7f, 0x0d, 0xe7, 0xf3, 0xfb, 0x03, 0x34, 0xf6,
  0x0a, 0xea, 0xfb, 0xd2, 0x08, 0x13, 0x00, 0xfe, 0x5e, 0xf3, 0x2e, 0x72,
  0x46, 0x00, 0x01, 0xfa, 0xd4, 0xaf, 0x28, 0x2c, 0xd6, 0x0e, 0xd8, 0xea,
  0x7f, 0xfe, 0xa6, 0xe2, 0x15, 0x03, 0xd4, 0xfc, 0xf2, 0xf4, 0x05, 0x3b,
  0xc3, 0x33, 0x0d, 0xee, 0x08, 0x03, 0x31, 0xfd, 0x3a, 0xf4, 0xff, 0xf6,
  0xdf, 0xe9, 0x07, 0xcf, 0xed, 0xed, 0xf4, 0x7f, 0x3a, 0xf6, 0xe3, 0x00,
  0x29, 0xf4, 0xf4, 0xfa, 0x5d, 0xf9, 0xff, 0x1e, 0xf7, 0xf6, 0x00, 0xfe,
  0xf0, 0x2b, 0xfe, 0x25, 0x3e, 0x07, 0xe3, 0x0b, 0x01, 0xef, 0x0d, 0x2c,
  0x12, 0x7f, 0xef, 0xcb, 0xc1, 0xff, 0xf4, 0xde, 0xd6, 0x22, 0x1d, 0x5a,
  0xcb, 0x0e, 0x0d, 0x16, 0xea, 0xf2, 0xff, 0x0d, 0x1a, 0x01, 0x40, 0xfa,
  0xfd, 0x03, 0x0c, 0xdd, 0x4b, 0xb3, 0x7f, 0x49, 0x03, 0xe3, 0x15, 0x5e,
  0xf5, 0xf5, 0x0f, 0xfa, 0xef, 0xe2, 0x05, 0xfe, 0xdf, 0x0f, 0x02, 0x58,
  0x08, 0xe7, 0x00, 0x1f, 0xec, 0xff, 0x0e, 0xec, 0xef, 0xf2, 0x61, 0x05,
  0x0f, 0x9a, 0x2f, 0x02, 0x2d, 0xff, 0x04, 0x63, 0x7f, 0xf8, 0xbf, 0xfe,
  0x00, 0xfa, 0x4d, 0x03, 0xc3, 0xd8, 0xfb, 0xc4, 0x1a, 0x32, 0x30, 0xf5,
  0x21, 0xeb, 0x23, 0x4b, 0x3e, 0x20, 0xeb, 0x10, 0xcb, 0xde, 0xed, 0xe9,
  0xe5, 0xc3, 0x0b, 0xab, 0x81, 0x23, 0xcc, 0xe4, 0x13, 0xf7, 0xc6, 0xe4,
  0xad, 0xb0, 0xf4, 0x48, 0xf3, 0xfe, 0x53, 0x1e, 0x67, 0xda, 0xf1, 0xff,
  0xcc, 0xd3, 0x4a, 0x2f, 0xf3, 0x23, 0xcb, 0xe9, 0x40, 0xe5, 0x37, 0xf5,
  0x21, 0xf0, 0x59, 0x09, 0x05, 0xf2, 0x5f, 0xfd, 0x00, 0x5a, 0xec, 0xdd,
  0x58, 0xe5, 0x1b, 0xff, 0x00, 0x27, 0xe4, 0x22, 0xe5, 0x06, 0x7f, 0x2e,
  0xdb, 0xfb, 0x17, 0xf3, 0xf9, 0x06, 0xde, 0xf6, 0xf4, 0x02, 0xf4, 0x25,
  0xf1, 0x1d, 0xe0, 0xf8, 0xf9, 0x0d, 0x42, 0x0d, 0xfb, 0xe5, 0x00, 0x7e,
  0xf4, 0x59, 0xee, 0x3f, 0x7f, 0x47, 0x06, 0x04, 0xe0, 0x6f, 0xf0, 0x62,
  0xe8, 0xe1, 0x2f, 0xbf, 0x6f, 0xfe, 0x7f, 0x23, 0x25, 0xfe, 0x10, 0x00,
  0x19, 0x37, 0xfd, 0xea, 0x05, 0x34, 0x00, 0xe5, 0xe1, 0x55, 0x48, 0xfe,
  0x26, 0xc6, 0xe2, 0xee, 0xee, 0x4f, 0xf0, 0xd7, 0x19, 0xa3, 0x37, 0x17,
  0xd8, 0x30, 0x0a, 0xd2, 0xf5, 0xb2, 0x27, 0xd5, 0x56, 0xaa, 0xee, 0x5b,
  0x09, 0xdf, 0x05, 0xaf, 0x2d, 0x73, 0x69, 0x44, 0x29, 0xe2, 0x7f, 0xd9,
  0xf4, 0x7f, 0x05, 0xe9, 0xf6, 0xc9, 0x4e, 0x07, 0xfb, 0xe9, 0xe3, 0xe0,
  0xfd, 0x15, 0xe4, 0x59, 0x3b, 0x04, 0x11, 0xdc, 0x0a, 0xf1, 0x00, 0xcd,
  0xcc, 0x23, 0x21, 0xd5, 0x03, 0x14, 0x35, 0xe7, 0x36, 0xf2, 0x4d, 0xd5,
  0xf4, 0xe4, 0xee, 0x2c, 0x81, 0xf9, 0x7d, 0x0e, 0xfa, 0x54, 0x18, 0xe1,
  0x06, 0x11, 0x54, 0xcb, 0x1e, 0x24, 0x00, 0x02, 0x17, 0x04, 0xfe, 0x60,
  0x3e, 0x49, 0xe4, 0x43, 0x18, 0x97, 0x14, 0xcf, 0x0f, 0x25, 0xf7, 0x28,
  0x81, 0x58, 0xe9, 0x2e, 0x08, 0x34, 0x00, 0x7a, 0x95, 0x4d, 0xed, 0xe0,
  0xee, 0x06, 0x09, 0xe3, 0x64, 0xee, 0x0c, 0x01, 0x0d, 0x59, 0x2b, 0xcb,
  0xe5, 0xac, 0xe4, 0xf4, 0xed, 0xe6, 0x24, 0x7f, 0x0e, 0x26, 0xc9, 0xed,
  0x0a, 0x4e, 0x26, 0xb4, 0xed, 0x0f, 0x5d, 0xcc, 0x30, 0x3d, 0x00, 0xff,
  0x3d, 0x39, 0x0d, 0x14, 0x1b, 0x2d, 0x35, 0x4f, 0xcc, 0xf4, 0xd6, 0xe6,
  0x7f, 0xe4, 0xf5, 0xf9, 0xee, 0x07, 0xff, 0x4e, 0x1b, 0xf5, 0xd0, 0xf6,
  0x3d, 0x77, 0xe8, 0x17, 0xed, 0xd7, 0x00, 0xe8, 0x0b, 0x4e, 0x34, 0x0b,
  0xf0, 0xee, 0x2f, 0xf6, 0x2a, 0xb2, 0x09, 0x44, 0xe9, 0xfb, 0x57, 0xc3,
  0xd6, 0xe3, 0xde, 0x0f, 0xf6, 0x19, 0x3c, 0x5a, 0xc9, 0x13, 0x28, 0xc0,
  0xec, 0x08, 0x00, 0xe3, 0xbe, 0xea, 0x7f, 0x11, 0x05, 0x63, 0xb9, 0xc7,
  0xf8, 0x7f, 0xf8, 0xf7, 0x08, 0xc9, 0xeb, 0x57, 0xdb, 0xcb, 0x03, 0xff,
  0xea, 0xdb, 0xf2, 0x0c, 0x2f, 0xde, 0x01, 0xdf, 0x16, 0x10, 0x2d, 0xd3,
  0xfe, 0x1a, 0xe8, 0x34, 0x58, 0x04, 0x32, 0xd0, 0xdb, 0x7f, 0x00, 0xf2,
  0xdd, 0xeb, 0x1d, 0xed, 0x21, 0x51, 0xe9, 0xdb, 0x19, 0x04, 0xfd, 0xcc,
  0xd8, 0xc4, 0xfd, 0xef, 0x17, 0xf4, 0x00, 0xea, 0xde, 0xf9, 0xf6, 0x0c,
  0xda, 0xe3, 0xc2, 0xef, 0x48, 0x47, 0x09, 0xec, 0xfb, 0x19, 0xff, 0x7d,
  0x00, 0xf2, 0x7f, 0x3c, 0x1b, 0x37, 0x24, 0x08, 0x29, 0x5d, 0xf8, 0xe3,
  0x18, 0xda, 0x00, 0x03, 0x08, 0xef, 0xf3, 0x08, 0x0f, 0x07, 0x43, 0x0f,
  0xfd, 0xd7, 0xd4, 0x13, 0x3a, 0xe7, 0x0a, 0x47, 0xfc, 0x2a, 0x7f, 0xfd,
  0xfc, 0xf2, 0xf4, 0x0e, 0xfc, 0x0f, 0xf1, 0xfd, 0xfd, 0x06, 0x00, 0x14,
  0xe8, 0x3e, 0xe8, 0x25, 0x0e, 0xf8, 0xd6, 0x10, 0x7d, 0x82, 0xe6, 0x0f,
  0x0d, 0x00, 0xb7, 0xc5, 0x97, 0x03, 0xe6, 0x06, 0xfd, 0xf9, 0x54, 0x4b,
  0xde, 0xfe, 0xf6, 0xf0, 0xbc, 0x16, 0x01, 0x3f, 0xf2, 0x09, 0xfd, 0x32,
  0x7f, 0xc1, 0x29, 0x78, 0x1f, 0x8b, 0x3d, 0x7f, 0xe3, 0x03, 0x02, 0xe4,
  0x1e, 0x08, 0x75, 0xdd, 0xe0, 0xfd, 0x36, 0xd2, 0xf2, 0x19, 0x14, 0xc9,
  0xf2, 0x4c, 0x46, 0xee, 0x12, 0xff, 0xea, 0x00, 0x1e, 0xe0, 0x09, 0xdb,
  0x40, 0x81, 0x3c, 0xf1, 0x46, 0xfb, 0xdb, 0xab, 0xc6, 0x19, 0xd2, 0xda,
  0xe0, 0xea, 0xd7, 0xd5, 0xad, 0xf9, 0xf7, 0xf5, 0xfc, 0xfc, 0x0e, 0x22,
  0x5d, 0xec, 0xc3, 0xcc, 0xb6, 0x33, 0x42, 0x08, 0x39, 0xcd, 0x42, 0x1f,
  0x59, 0x17, 0x04, 0x7f, 0x68, 0xec, 0x65, 0xf4, 0xdb, 0xeb, 0x3f, 0xfa,
  0x1f, 0x18, 0xec, 0xc7, 0xe5, 0x62, 0x00, 0x10, 0x66, 0x13, 0xfe, 0x0c,
  0x0b, 0xe6, 0xeb, 0xe9, 0xeb, 0x7f, 0x66, 0xd9, 0xf0, 0x36, 0xef, 0x8b,
  0x58, 0x05, 0x3c, 0xf9, 0xe1, 0xfc, 0xd9, 0xbf, 0xe9, 0xe6, 0xf4, 0x04,
  0x51, 0xb4, 0x09, 0xee, 0xee, 0x09, 0xdd, 0xec, 0xce, 0xfe, 0xab, 0x47,
  0xcd, 0x52, 0xad, 0x66, 0xf4, 0xea, 0x31, 0x71, 0x08, 0xef, 0x24, 0xf1,
  0x16, 0xcc, 0xcf, 0x7f, 0xfb, 0xf4, 0x16, 0x3c, 0xfd, 0x37, 0x12, 0x37,
  0xeb, 0x2a, 0x37, 0x16, 0x0b, 0xc9, 0xd1, 0x06, 0x1a, 0xcd, 0xff, 0xff,
  0x04, 0x00, 0x00, 0x00, 0x00, 0x01, 0x00, 0x00, 0x75, 0x12, 0x00, 0x00,
  0xbb, 0x0d, 0x00, 0x00, 0xb5, 0xfe, 0xff, 0xff, 0xee, 0x02, 0x00, 0x00,
  0xf4, 0x02, 0x00, 0x00, 0x3b, 0x09, 0x00, 0x00, 0xcf, 0x02, 0x00, 0x00,
  0x00, 0x06, 0x00, 0x00, 0x1b, 0xfb, 0xff, 0xff, 0xf4, 0xf6, 0xff, 0xff,
  0x13, 0x01, 0x00, 0x00, 0xdc, 0xf8, 0xff, 0xff, 0x53, 0x07, 0x00, 0x00,
  0xc9, 0xf4, 0xff, 0xff, 0xc0, 0x02, 0x00, 0x00, 0x0c, 0x0c, 0x00, 0x00,
  0x1a, 0xf9, 0xff, 0xff, 0x10, 0x07, 0x00, 0x00, 0x02, 0x03, 0x00, 0x00,
  0x9f, 0x05, 0x00, 0x00, 0x9b, 0x0e, 0x00, 0x00, 0x3b, 0xf9, 0xff, 0xff,
  0x2e, 0x08, 0x00, 0x00, 0x4e, 0xfe, 0xff, 0xff, 0x92, 0x04, 0x00, 0x00,
  0xb8, 0x00, 0x00, 0x00, 0xf5, 0x06, 0x00, 0x00, 0x8c, 0xfa, 0xff, 0xff,
  0xb2, 0xf1, 0xff, 0xff, 0xb9, 0x0b, 0x00, 0x00, 0xc2, 0xfb, 0xff, 0xff,
  0x3d, 0x0a, 0x00, 0x00, 0xdf, 0xf9, 0xff, 0xff, 0xb0, 0xf6, 0xff, 0xff,
  0xbc, 0x04, 0x00, 0x00, 0xe3, 0x13, 0x00, 0x00, 0xd9, 0xfd, 0xff, 0xff,
  0xf5, 0x07, 0x00, 0x00, 0xf2, 0x03, 0x00, 0x00, 0xbc, 0x06, 0x00, 0x00,
  0x9c, 0x07, 0x00, 0x00, 0xa9, 0x10, 0x00, 0x00, 0xe9, 0x00, 0x00, 0x00,
  0xfc, 0x07, 0x00, 0x00, 0x5a, 0x00, 0x00, 0x00, 0x72, 0xf9, 0xff, 0xff,
  0xdd, 0x02, 0x00, 0x00, 0x84, 0xe6, 0xff, 0xff, 0x0e, 0xf7, 0xff, 0xff,
  0xab, 0x08, 0x00, 0x00, 0x26, 0x06, 0x00, 0x00, 0x85, 0x18, 0x00, 0x00,
  0xc5, 0xf8, 0xff, 0xff, 0xf3, 0xfa, 0xff, 0xff, 0xa5, 0xfc, 0xff, 0xff,
  0x3b, 0xf7, 0xff, 0xff, 0x3f, 0x03, 0x00, 0x00, 0x66, 0x06, 0x00, 0x00,
  0x3f, 0x02, 0x00, 0x00, 0x57, 0xfd, 0xff, 0xff, 0x73, 0x01, 0x00, 0x00,
  0x9f, 0x01, 0x00, 0x00, 0xe7, 0x0a, 0x00, 0x00, 0x6e, 0xff, 0xff, 0xff,
  0x26, 0xce, 0xff, 0xff, 0x04, 0x00, 0x00, 0x00, 0x40, 0x00, 0x00, 0x00,
  0xf6, 0x26, 0x12, 0xe4, 0xe5, 0x31, 0xcf, 0xfc, 0x7f, 0x52, 0xd3, 0x59,
  0x4c, 0x49, 0xfa, 0x35, 0xf6, 0x39, 0xfe, 0xfc, 0xd4, 0xf8, 0xfd, 0x03,
  0x0b, 0xdb, 0x34, 0xf0, 0x4d, 0xe9, 0x1e, 0xd0, 0x01, 0x2a, 0x13, 0x13,
  0x04, 0xd2, 0xed, 0xf3, 0x2a, 0xf5, 0xe6, 0x6d, 0x0d, 0x6a, 0xd4, 0x6b,
  0x0c, 0x1b, 0x2a, 0x0a, 0x4b, 0x62, 0x17, 0x73, 0xcc, 0xd2, 0x38, 0xe6,
  0x61, 0xd6, 0xff, 0xe8, 0x72, 0xce, 0xff, 0xff, 0x04, 0x00, 0x00, 0x00,
  0x40, 0x00, 0x00, 0x00, 0xbb, 0xf7, 0x37, 0xaf, 0x80, 0x2c, 0xd7, 0xbf,
  0x73, 0x61, 0x01, 0x5b, 0x4d, 0x43, 0xed, 0x37, 0x2b, 0x4b, 0xf1, 0xf1,
  0xc5, 0x04, 0x0e, 0x15, 0xfb, 0xdc, 0x0e, 0x2e, 0x51, 0xd5, 0x41, 0xf0,
  0x0a, 0x49, 0xbb, 0xe7, 0x2d, 0xe1, 0x14, 0xce, 0x21, 0x80, 0x07, 0x54,
  0xf4, 0x6d, 0xba, 0x63, 0x36, 0xd7, 0x32, 0x8e, 0x5f, 0x65, 0x3e, 0x6c,
  0x95, 0x01, 0x38, 0x13, 0x50, 0xf3, 0xb1, 0xfa, 0xbe, 0xce, 0xff, 0xff,
  0x04, 0x00, 0x00, 0x00, 0x00, 0x30, 0x00, 0x00, 0x05, 0x00, 0xef, 0x06,
  0xfd, 0x00, 0x01, 0x01, 0x00, 0x00, 0xfd, 0x00, 0x00, 0xff, 0x00, 0x00,
  0xfc, 0x00, 0x00, 0x00, 0xfe, 0xff, 0x00, 0x00, 0x00, 0xfd, 0xfe, 0x04,
  0x00, 0x02, 0x00, 0x04, 0x00, 0x00, 0x01, 0x00, 0x00, 0x03, 0x00, 0xfc,
  0x00, 0x02, 0xfd, 0x00, 0x01, 0x00, 0xfb, 0x00, 0x00, 0x00, 0x00, 0x00,
  0x00, 0x00, 0x00, 0x00, 0xf9, 0xf8, 0x00, 0xfe, 0x00, 0xff, 0xff, 0xfe,
  0x02, 0x00, 0x03, 0xf9, 0x02, 0x00, 0xfa, 0xfc, 0x00, 0x00, 0x05, 0x00,
  0x00, 0x00, 0x00, 0x00, 0xfd, 0x00, 0x00, 0x00, 0x01, 0xff, 0x00, 0xff,
  0x00, 0x01, 0x00, 0xf3, 0x00, 0x04, 0x00, 0xff, 0x00, 0x00, 0x00, 0x00,
  0x00, 0xfd, 0xff, 0x04, 0x00, 0xfa, 0x09, 0x00, 0x00, 0x00, 0x04, 0x00,
  0x00, 0x00, 0x00, 0x03, 0x00, 0x00, 0x00, 0x00, 0x03, 0x03, 0x00, 0x04,
  0x00, 0x04, 0x01, 0x00, 0xfb, 0xfd, 0xff, 0xff, 0x00, 0x08, 0x00, 0xfe,
  0x01, 0x00, 0xfe, 0xfd, 0xfd, 0xfc, 0xff, 0x09, 0x00, 0x06, 0x01, 0xff,
  0xff, 0xff, 0x02, 0x00, 0xfc, 0xff, 0x02, 0xff, 0xfe, 0xfe, 0x01, 0xff,
  0xfd, 0x01, 0x00, 0xf8, 0x01, 0x00, 0xfd, 0x00, 0xff, 0xfb, 0x04, 0xff,
  0xff, 0xfe, 0xfc, 0xfe, 0xff, 0xf9, 0xfd, 0x03, 0x02, 0x02, 0x01, 0x00,
  0x01, 0x00, 0x01, 0xff, 0xf9, 0xff, 0x00, 0xff, 0xff, 0xff, 0xff, 0x00,
  0x00, 0x01, 0xff, 0x00, 0x00, 0x00, 0x00, 0x00, 0x02, 0x00, 0x00, 0x00,
  0xff, 0x00, 0x00, 0x00, 0xff, 0x00, 0x00, 0x00, 0x00, 0xff, 0xff, 0x00,
  0x00, 0xff, 0x00, 0xff, 0x00, 0x00, 0x00, 0xff, 0x00, 0xff, 0xfd, 0xfe,
  0x00, 0x00, 0xff, 0x00, 0x00, 0x00, 0xff, 0x00, 0x00, 0x00, 0x01, 0xff,
  0x00, 0x00, 0x00, 0x00, 0x00, 0xff, 0x00, 0x00, 0xff, 0x00, 0xfd, 0x00,
  0x01, 0x05, 0x00, 0x01, 0xff, 0x0d, 0x00, 0x00, 0xfe, 0x04, 0x00, 0x06,
  0x04, 0x00, 0x04, 0xfc, 0x00, 0xfb, 0xfd, 0xf4, 0x00, 0x02, 0xfa, 0x02,
  0x05, 0x02, 0x03, 0x00, 0x07, 0x00, 0xef, 0x00, 0xfd, 0xf8, 0x0c, 0x04,
  0xf0, 0x00, 0x01, 0x00, 0xfb, 0x05, 0xff, 0xfe, 0x01, 0xfe, 0x00, 0xf8,
  0x09, 0x0a, 0xf5, 0x02, 0xf9, 0xff, 0xff, 0x00, 0x00, 0x00, 0xfe, 0x00,
  0xf8, 0x00, 0x01, 0x02, 0x00, 0x00, 0x00, 0x00, 0xff, 0xff, 0x00, 0x00,
  0x00, 0x00, 0x00, 0x00, 0xff, 0x01, 0xfd, 0xfb, 0x00, 0xfe, 0x00, 0xfe,
  0x00, 0x03, 0xfd, 0x02, 0xff, 0x00, 0xfc, 0x00, 0xff, 0x00, 0x02, 0x00,
  0x02, 0x00, 0xff, 0x03, 0x02, 0x00, 0x00, 0x00, 0xff, 0xff, 0x00, 0xfd,
  0xff, 0x00, 0x00, 0x00, 0xff, 0x03, 0xfc, 0xff, 0x00, 0x00, 0x00, 0x00,
  0x00, 0x00, 0xfe, 0x00, 0xfc, 0x00, 0x01, 0x00, 0xed, 0x03, 0x0f, 0xf6,
  0xf4, 0x10, 0xf4, 0x02, 0x01, 0x00, 0xf7, 0x04, 0xeb, 0xff, 0x07, 0xff,
  0xea, 0xf9, 0xfa, 0x00, 0xf3, 0x06, 0xf3, 0x14, 0x00, 0xf5, 0x0c, 0xe8,
  0x01, 0x08, 0xfa, 0x0a, 0x00, 0x02, 0xfb, 0xff, 0x09, 0x04, 0x00, 0x13,
  0xf6, 0x13, 0x09, 0x01, 0xfd, 0xf5, 0xf8, 0x02, 0x00, 0xfe, 0x02, 0x03,
  0x00, 0x03, 0x04, 0x01, 0xf8, 0x07, 0xf7, 0x06, 0x00, 0xee, 0xeb, 0xec,
  0xe6, 0xfd, 0xec, 0xfa, 0xf4, 0xfe, 0xe9, 0xfe, 0x00, 0xff, 0xf4, 0xfd,
  0xf5, 0x07, 0xfd, 0xfe, 0x0c, 0x03, 0xfb, 0x00, 0xe2, 0x00, 0x01, 0x07,
  0xff, 0xe1, 0xfb, 0xdd, 0xfa, 0x06, 0xfb, 0x10, 0x00, 0x01, 0xf9, 0xf9,
  0x02, 0x06, 0xf1, 0x09, 0xfc, 0xfc, 0x0d, 0x00, 0x00, 0xfe, 0x05, 0x00,
  0xfe, 0xf4, 0x00, 0x0b, 0x00, 0x05, 0xfa, 0xf8, 0xf4, 0xe1, 0x03, 0xf6,
  0xff, 0x06, 0x04, 0xfd, 0x22, 0x0a, 0x08, 0xf4, 0xfc, 0x05, 0xf5, 0x00,
  0xf8, 0xfc, 0x20, 0xf1, 0xfc, 0x0b, 0x1c, 0x0f, 0xea, 0x0c, 0xe1, 0xee,
  0xf5, 0xf9, 0xdf, 0x1d, 0x02, 0xe0, 0xe8, 0xf8, 0xff, 0xfc, 0x10, 0xed,
  0xec, 0x1d, 0xee, 0xed, 0x1a, 0xe8, 0x0f, 0xfc, 0x07, 0x10, 0xf7, 0x09,
  0x04, 0xfe, 0xff, 0x12, 0x07, 0x21, 0xee, 0x0a, 0x13, 0x08, 0x0f, 0x11,
  0x22, 0xf6, 0xf5, 0x1b, 0x00, 0xe5, 0xde, 0x01, 0xec, 0x10, 0xfa, 0x15,
  0x15, 0x0f, 0x0c, 0xf0, 0x00, 0xff, 0xfa, 0xfd, 0xfd, 0xfb, 0xe9, 0x01,
  0x0c, 0x01, 0xf9, 0xf7, 0x02, 0xf6, 0xf8, 0xfc, 0xff, 0x0c, 0x1a, 0x0d,
  0x04, 0xf4, 0xf9, 0xe9, 0xf5, 0x0c, 0xef, 0x02, 0x02, 0xef, 0xf8, 0xf5,
  0xf0, 0xf3, 0xf9, 0xf8, 0x01, 0xff, 0x08, 0xfe, 0x07, 0x00, 0xf9, 0x16,
  0x09, 0xfc, 0xfd, 0xfe, 0x03, 0x0e, 0xf4, 0xfa, 0xf9, 0x04, 0x05, 0xf3,
  0xf3, 0x14, 0xfd, 0xfc, 0x09, 0xef, 0x03, 0x13, 0xf4, 0x0c, 0xeb, 0x26,
  0x27, 0xde, 0xe4, 0xfa, 0x00, 0x1a, 0xeb, 0xeb, 0x08, 0x07, 0xf9, 0x04,
  0xf9, 0xf4, 0x13, 0xee, 0x01, 0xf6, 0x07, 0xfc, 0xed, 0x17, 0x07, 0xeb,
  0xf3, 0x0f, 0xea, 0xf6, 0xde, 0xfc, 0x18, 0x0a, 0xff, 0xff, 0xfd, 0x09,
  0x01, 0xe5, 0x09, 0xf8, 0xfb, 0xe9, 0x05, 0x25, 0x02, 0xf5, 0xf5, 0xf9,
  0xf3, 0xf3, 0xe6, 0x20, 0x02, 0xe5, 0xff, 0xfd, 0x03, 0xfe, 0x0b, 0x0e,
  0xe6, 0x07, 0x0e, 0x07, 0x01, 0x20, 0x0a, 0xf0, 0xfe, 0x00, 0xf8, 0x18,
  0x01, 0xe3, 0xf7, 0xee, 0xdb, 0x09, 0x06, 0xf7, 0x12, 0x07, 0xec, 0x07,
  0x02, 0x18, 0x00, 0x0d, 0xe8, 0x09, 0x02, 0x01, 0x20, 0xf8, 0x0d, 0x07,
  0x19, 0xee, 0xf6, 0x04, 0xfb, 0xf3, 0x02, 0xe7, 0x2a, 0x07, 0x0b, 0xe4,
  0x09, 0xf1, 0xe3, 0x04, 0x1f, 0x02, 0x0d, 0x01, 0xdb, 0xe0, 0x0d, 0xe5,
  0xed, 0xf7, 0x00, 0x37, 0x00, 0xf7, 0x31, 0xfa, 0xfb, 0xe0, 0x06, 0xff,
  0x0b, 0xec, 0x05, 0xf3, 0x01, 0x13, 0x0f, 0x05, 0xf4, 0xf2, 0xfb, 0x23,
  0xf8, 0x10, 0xfa, 0xdd, 0xf9, 0xf6, 0xed, 0xfc, 0xff, 0xd5, 0xde, 0x17,
  0xf3, 0x08, 0x10, 0x00, 0x12, 0xf9, 0xd1, 0xff, 0xf6, 0xe8, 0xfe, 0x24,
  0x01, 0xfb, 0x00, 0x0b, 0x40, 0x3d, 0x01, 0xf1, 0xfa, 0x24, 0x08, 0x0c,
  0xeb, 0x00, 0xff, 0xe3, 0x01, 0x04, 0x2b, 0x13, 0xfd, 0xfe, 0xe5, 0xff,
  0x03, 0xdc, 0xef, 0x04, 0x31, 0x09, 0xf7, 0xfa, 0x2c, 0x01, 0xf4, 0x0e,
  0xfe, 0x39, 0xd4, 0x46, 0x06, 0xe1, 0x05, 0xe7, 0x05, 0xff, 0x1a, 0x09,
  0x06, 0x34, 0x11, 0xf3, 0x03, 0xc6, 0x15, 0xfb, 0x01, 0x03, 0xfd, 0x02,
  0x05, 0xf7, 0xfe, 0x02, 0x01, 0xfe, 0xff, 0x07, 0xf5, 0xd0, 0xfb, 0xde,
  0xfd, 0x3e, 0x0e, 0x34, 0xef, 0xc4, 0x11, 0x02, 0x12, 0xf0, 0x29, 0x20,
  0x0a, 0x02, 0x0e, 0xc4, 0xe8, 0x36, 0x07, 0xe6, 0x3e, 0xea, 0x23, 0x19,
  0x19, 0xec, 0xf6, 0x07, 0xe7, 0x11, 0x1a, 0x49, 0xf3, 0xe6, 0x30, 0x0a,
  0x0a, 0xfb, 0x1f, 0xcd, 0x00, 0x21, 0xdc, 0xee, 0xfb, 0x20, 0x27, 0xe7,
  0xee, 0xde, 0x3f, 0xfb, 0xd6, 0xf5, 0x13, 0xe2, 0x22, 0xec, 0x05, 0x04,
  0x3a, 0x14, 0xc7, 0x3e, 0xd1, 0x35, 0xcb, 0x19, 0xf7, 0xde, 0xfd, 0x0c,
  0xfa, 0xec, 0x15, 0x12, 0x12, 0xfb, 0x04, 0xf9, 0xf7, 0x03, 0xff, 0xdd,
  0x0e, 0xcd, 0x08, 0xed, 0xf4, 0x19, 0x03, 0xf0, 0xeb, 0x0b, 0xf0, 0x1c,
  0x02, 0xfa, 0x09, 0x13, 0x18, 0xea, 0x04, 0xfc, 0xf1, 0x03, 0x1e, 0x11,
  0xfb, 0xea, 0x11, 0x15, 0xe6, 0xfe, 0xff, 0x1a, 0x16, 0x05, 0xf4, 0xde,
  0x0f, 0xf5, 0x1b, 0x10, 0xfa, 0x15, 0xf1, 0x05, 0xf7, 0x04, 0x11, 0x06,
  0x0a, 0x0b, 0x24, 0x11, 0xfd, 0x1c, 0x17, 0x34, 0x0b, 0x2c, 0x10, 0x20,
  0xf0, 0xcb, 0xc1, 0xce, 0x06, 0xcb, 0x42, 0x32, 0x0e, 0x1e, 0xbe, 0x42,
  0x2d, 0x0f, 0xdc, 0xee, 0x43, 0xde, 0x1e, 0x17, 0x18, 0x21, 0xfb, 0xfa,
  0x3e, 0x07, 0xf8, 0xef, 0x14, 0xee, 0x0d, 0x09, 0x02, 0x00, 0x1f, 0xd1,
  0x44, 0xc1, 0x24, 0xe6, 0x3e, 0xcc, 0x08, 0x21, 0x20, 0xe7, 0xcb, 0x15,
  0xba, 0x2e, 0xdd, 0x18, 0xc3, 0x06, 0xff, 0xe7, 0xdb, 0xc9, 0xde, 0x00,
  0x20, 0xec, 0xf6, 0x18, 0xd1, 0xe7, 0x06, 0x03, 0xea, 0xd6, 0xea, 0xfe,
  0xe5, 0xe8, 0xcc, 0x16, 0x05, 0xe6, 0xd4, 0xeb, 0x01, 0xd2, 0x3c, 0xf7,
  0x1d, 0xdf, 0x21, 0x31, 0x1b, 0xf4, 0xca, 0xf7, 0xf6, 0x1e, 0xe0, 0x1d,
  0x0f, 0x10, 0xf7, 0xf3, 0xf9, 0x05, 0xd6, 0xe7, 0x18, 0xe9, 0x25, 0x0a,
  0xe4, 0xfb, 0xee, 0xde, 0x1e, 0xf4, 0xf8, 0x1d, 0x05, 0x14, 0xd4, 0xdb,
  0xf9, 0x07, 0xea, 0x16, 0xfe, 0x08, 0x06, 0xfe, 0xf3, 0xfd, 0xee, 0xf3,
  0xcc, 0x0d, 0xf5, 0x0a, 0x21, 0xf7, 0x02, 0x17, 0x01, 0xd6, 0x12, 0xdf,
  0x05, 0xf7, 0xfb, 0xcf, 0x01, 0x10, 0x13, 0xf8, 0x04, 0xfa, 0xd7, 0x02,
  0x0d, 0xfe, 0xe3, 0xfe, 0xee, 0x0f, 0xc1, 0xfe, 0x05, 0xf6, 0x0c, 0xd9,
  0x05, 0xfb, 0xf9, 0xf1, 0x09, 0x03, 0xff, 0x22, 0x04, 0xd1, 0xd2, 0xe0,
  0xcc, 0x0c, 0xb7, 0x06, 0xe2, 0x03, 0xf7, 0xd4, 0x02, 0x00, 0xd6, 0x04,
  0x04, 0x17, 0xf4, 0xf4, 0xff, 0xe9, 0xfd, 0x04, 0xd9, 0xd5, 0x00, 0xec,
  0xf3, 0xf6, 0x0b, 0x1f, 0xf4, 0x1d, 0xf3, 0xea, 0xf5, 0xf9, 0xcb, 0xfa,
  0xfa, 0xb6, 0xb3, 0x15, 0xf1, 0xeb, 0xee, 0x00, 0xf3, 0xfc, 0xc5, 0xfe,
  0xfc, 0xf1, 0xfe, 0xe7, 0xfa, 0xfb, 0xef, 0x07, 0x0a, 0xc3, 0x0c, 0x0e,
  0x04, 0xf7, 0xf4, 0xe2, 0x15, 0xfd, 0xf9, 0x3a, 0x20, 0x05, 0xf2, 0xf4,
  0x18, 0x07, 0x2b, 0xfc, 0xe8, 0xf9, 0xed, 0xd1, 0x0b, 0xf4, 0xe5, 0x2e,
  0xfa, 0x44, 0x2e, 0x0c, 0x01, 0x0f, 0x10, 0x18, 0x40, 0x2c, 0x43, 0xed,
  0x40, 0x10, 0x2e, 0xe0, 0x0d, 0x15, 0xd6, 0x2e, 0xdf, 0x0c, 0x3b, 0xe1,
  0x0d, 0x15, 0x35, 0x19, 0x10, 0xf9, 0x2e, 0x05, 0x31, 0xe9, 0x33, 0x0f,
  0x03, 0xee, 0xfb, 0x1c, 0xf8, 0x1c, 0x1e, 0xe9, 0x03, 0x17, 0x0a, 0xf3,
  0x30, 0xed, 0x2b, 0xf2, 0x0b, 0x12, 0x0c, 0x17, 0x0b, 0x1c, 0x1c, 0x00,
  0xfa, 0xf3, 0xf0, 0x16, 0xf7, 0x36, 0xf3, 0x0c, 0xfb, 0x0c, 0xf1, 0x22,
  0x16, 0xf5, 0x0d, 0x03, 0x2f, 0xf9, 0x08, 0x0d, 0x3e, 0xfd, 0x13, 0xd8,
  0x3e, 0xee, 0xef, 0x1e, 0x18, 0x09, 0xec, 0x2d, 0x24, 0x2d, 0x10, 0x0b,
  0x05, 0x2a, 0x29, 0xf1, 0x10, 0xf7, 0x08, 0x14, 0xe6, 0x1e, 0xff, 0x12,
  0x08, 0x0a, 0x00, 0x23, 0x15, 0xf3, 0x05, 0xe2, 0xea, 0x00, 0xdb, 0x2e,
  0x08, 0x17, 0xd7, 0xcb, 0x02, 0x29, 0xf6, 0x16, 0x0a, 0xee, 0xf9, 0x4f,
  0xf3, 0xec, 0x3d, 0xe9, 0xf4, 0x0c, 0x3d, 0x26, 0xfe, 0x3c, 0xfe, 0xd3,
  0x3f, 0x03, 0x01, 0x04, 0x15, 0xce, 0x0e, 0x1b, 0xc7, 0x4d, 0x20, 0x24,
  0xd5, 0x16, 0xf3, 0x2f, 0x25, 0x2c, 0x46, 0x31, 0xd6, 0xf5, 0x22, 0xf4,
  0xd6, 0xef, 0xf9, 0x23, 0x47, 0x05, 0x23, 0x05, 0x44, 0x23, 0x0e, 0x24,
  0x21, 0x1b, 0x06, 0xea, 0xfb, 0x29, 0x2d, 0xd7, 0x2c, 0x09, 0xf6, 0x13,
  0x2f, 0x17, 0xf0, 0x16, 0x2e, 0x0c, 0xe5, 0x09, 0x08, 0x10, 0x18, 0x27,
  0x33, 0xdd, 0x15, 0xbf, 0x20, 0x23, 0x43, 0xf4, 0x03, 0xfd, 0x47, 0xd3,
  0xe3, 0x07, 0x22, 0xfe, 0xf5, 0xd9, 0x03, 0x1b, 0xe8, 0x3d, 0x3e, 0xee,
  0x20, 0x28, 0x24, 0x22, 0xe4, 0x10, 0xe3, 0xf0, 0xda, 0xec, 0x0a, 0x39,
  0x27, 0x05, 0x47, 0xca, 0x07, 0xf5, 0xc5, 0x0c, 0x0e, 0x22, 0xe4, 0x19,
  0x4b, 0x15, 0x1d, 0xfb, 0x38, 0xfc, 0x0c, 0x00, 0x01, 0xc5, 0xe8, 0x49,
  0x0e, 0xd6, 0xf7, 0xe9, 0x01, 0xef, 0x0d, 0x1f, 0xfb, 0xd0, 0x09, 0x26,
  0x1d, 0xfc, 0xee, 0x08, 0xfc, 0xfa, 0x15, 0x05, 0xf0, 0x1a, 0xf8, 0x1c,
  0xfe, 0xef, 0x0d, 0xdb, 0x54, 0xe7, 0xfc, 0x09, 0x01, 0xfb, 0xcb, 0x36,
  0xee, 0x15, 0x4f, 0x51, 0x1e, 0xf2, 0x21, 0xf9, 0x00, 0x04, 0x10, 0xfd,
  0xfc, 0xc9, 0x11, 0x1a, 0xe6, 0x1c, 0xe5, 0xfa, 0x03, 0x2b, 0xe0, 0xff,
  0x0a, 0xcd, 0x0b, 0xff, 0x17, 0x15, 0x1f, 0xc3, 0xfc, 0x18, 0xf6, 0x18,
  0x06, 0xbe, 0x07, 0x05, 0xfe, 0xd2, 0x23, 0xf9, 0x22, 0x0a, 0xff, 0x09,
  0x0d, 0x11, 0xfb, 0x18, 0x11, 0x0b, 0x06, 0x12, 0xfe, 0x3a, 0x0e, 0xfa,
  0x0b, 0xc0, 0x13, 0xdf, 0x21, 0x33, 0x39, 0x63, 0x62, 0xdc, 0x5c, 0x49,
  0x13, 0x1f, 0x20, 0x04, 0x97, 0x15, 0x25, 0xc8, 0x75, 0xca, 0x3b, 0x4b,
  0xcc, 0x5a, 0xda, 0x69, 0x26, 0x17, 0xfe, 0x62, 0x04, 0x1c, 0x43, 0x38,
  0x61, 0x5c, 0x1a, 0x38, 0x1e, 0x15, 0x4d, 0x07, 0xf4, 0xbf, 0x2a, 0x06,
  0x12, 0xe0, 0x0d, 0x39, 0x49, 0xd3, 0xbb, 0x2f, 0x1a, 0x13, 0x02, 0x2d,
  0x3b, 0x63, 0xdb, 0x55, 0xc5, 0x5a, 0xc1, 0x4f, 0x2a, 0x12, 0x1f, 0x26,
  0x14, 0xfa, 0x38, 0x60, 0xed, 0x14, 0x28, 0x30, 0xd0, 0x0d, 0xdc, 0xc9,
  0x34, 0xc4, 0x1d, 0x2a, 0x14, 0x30, 0xfd, 0xe1, 0x1c, 0x06, 0xd6, 0x01,
  0x1f, 0xe6, 0x2a, 0x00, 0x29, 0xd8, 0x2d, 0xd7, 0x1f, 0xfd, 0x40, 0x41,
  0xe1, 0x27, 0x01, 0x08, 0x1e, 0x04, 0x10, 0xfc, 0x07, 0xf0, 0x34, 0xe5,
  0x26, 0x0a, 0xe9, 0x2b, 0x17, 0x06, 0xfe, 0x38, 0xf9, 0x05, 0x07, 0x2b,
  0xd7, 0xfe, 0x74, 0xf7, 0xe4, 0xec, 0x31, 0xde, 0x1f, 0x19, 0x47, 0x09,
  0x30, 0xee, 0x35, 0xe4, 0x50, 0xc5, 0x12, 0xd3, 0x01, 0x3a, 0xba, 0xe3,
  0x36, 0x4a, 0xf4, 0x47, 0x11, 0x1c, 0xdc, 0x1c, 0x1e, 0xb5, 0x04, 0xc8,
  0xce, 0x3c, 0x62, 0x15, 0xe8, 0xd4, 0x1b, 0xf8, 0x3c, 0xfc, 0x45, 0x02,
  0xeb, 0xfb, 0x13, 0xf7, 0xf9, 0xf5, 0x42, 0x24, 0x27, 0x60, 0x2b, 0x64,
  0xde, 0x29, 0x15, 0x18, 0xe8, 0xbf, 0x0c, 0x37, 0x30, 0xe7, 0xfe, 0x0f,
  0x0c, 0x0c, 0xd7, 0xfe, 0x0d, 0xf6, 0xd1, 0xfd, 0xde, 0xc7, 0x3d, 0xe5,
  0xdf, 0x33, 0xeb, 0xaf, 0xde, 0x13, 0x17, 0xee, 0xef, 0xfd, 0x1d, 0xdb,
  0xdd, 0x2d, 0xe4, 0x03, 0xf5, 0xf1, 0xe3, 0x13, 0xea, 0x30, 0xd2, 0xdd,
  0xc8, 0xff, 0xf2, 0xeb, 0xcf, 0x1c, 0x24, 0xf6, 0x56, 0xf9, 0x12, 0xf1,
  0xed, 0xdd, 0x24, 0xed, 0x5b, 0xfb, 0x0b, 0xe3, 0x00, 0x00, 0x00, 0x00,
  0x00, 0x00, 0x00, 0x00, 0x00, 0x00, 0x00, 0x00, 0x00, 0x00, 0x00, 0x00,
  0x00, 0x00, 0x00, 0x00, 0x00, 0x00, 0x00, 0x00, 0x00, 0x00, 0x00, 0x00,
  0x00, 0x00, 0x00, 0x00, 0x00, 0x00, 0x00, 0x00, 0x00, 0x00, 0x00, 0x00,
  0x00, 0x00, 0x00, 0x00, 0x00, 0x00, 0x00, 0x00, 0x00, 0x00, 0x00, 0x00,
  0x00, 0x00, 0x00, 0x00, 0x00, 0x00, 0x00, 0x00, 0x00, 0x00, 0x00, 0x00,
  0x00, 0x00, 0x00, 0x00, 0x00, 0x00, 0x00, 0x00, 0x00, 0x00, 0x00, 0x00,
  0x00, 0x00, 0x00, 0x00, 0x00, 0x00, 0x00, 0x00, 0x00, 0x00, 0x00, 0x00,
  0x00, 0x00, 0x00, 0x00, 0x00, 0x00, 0x00, 0x00, 0x00, 0x00, 0x00, 0x00,
  0x00, 0x00, 0x00, 0x00, 0x00, 0x00, 0x00, 0x00, 0x00, 0x00, 0x00, 0x00,
  0x00, 0x00, 0x00, 0x00, 0x00, 0x00, 0x00, 0x00, 0x00, 0x00, 0x00, 0x00,
  0x00, 0x00, 0x00, 0x00, 0x00, 0x00, 0x00, 0x00, 0x00, 0x00, 0x00, 0x00,
  0x00, 0x00, 0x00, 0x01, 0x00, 0x00, 0xff, 0x00, 0x00, 0x00, 0x00, 0x00,
  0x00, 0x00, 0x00, 0x00, 0x00, 0x00, 0x00, 0x00, 0x00, 0x00, 0x00, 0x00,
  0xfe, 0x00, 0x00, 0x00, 0x00, 0x00, 0x00, 0x00, 0x00, 0x00, 0x00, 0x00,
  0x00, 0x00, 0x00, 0x00, 0x00, 0x00, 0x00, 0x00, 0x00, 0x00, 0x00, 0x00,
  0x00, 0x00, 0x00, 0x00, 0x00, 0x00, 0x00, 0x00, 0x00, 0x00, 0x00, 0x00,
  0x00, 0x00, 0x00, 0x00, 0x00, 0x00, 0x00, 0x00, 0x00, 0x00, 0x00, 0x00,
  0x00, 0x00, 0x00, 0x00, 0x00, 0x00, 0x00, 0x00, 0x00, 0x00, 0x00, 0x00,
  0x00, 0x00, 0x00, 0x00, 0x00, 0x00, 0x00, 0x00, 0x00, 0x00, 0x00, 0x00,
  0x00, 0x00, 0x00, 0x00, 0x00, 0x00, 0x00, 0x00, 0x00, 0x00, 0x00, 0x00,
  0x00, 0x00, 0x00, 0x00, 0x00, 0x00, 0x00, 0x00, 0x00, 0x00, 0x00, 0x00,
  0x00, 0x00, 0x00, 0x00, 0x00, 0x01, 0x00, 0x00, 0x00, 0x00, 0x00, 0x00,
  0x00, 0x01, 0x00, 0x00, 0x00, 0x00, 0x00, 0x00, 0x00, 0x00, 0x00, 0x00,
  0x00, 0x00, 0x00, 0x00, 0x00, 0x00, 0x00, 0x00, 0x00, 0x00, 0x00, 0x00,
  0x00, 0x00, 0x00, 0x00, 0x00, 0x00, 0x00, 0x00, 0x00, 0x00, 0xff, 0x00,
  0x00, 0x00, 0x00, 0x00, 0x00, 0x00, 0x00, 0x00, 0x00, 0x00, 0x00, 0x00,
  0x00, 0x00, 0x00, 0x00, 0x00, 0x00, 0x00, 0x00, 0x00, 0x00, 0x00, 0x00,
  0x00, 0x00, 0x00, 0x00, 0x00, 0x00, 0x00, 0x00, 0x00, 0x00, 0x00, 0x00,
  0x00, 0x00, 0x00, 0x00, 0x00, 0x00, 0x00, 0x00, 0x00, 0x00, 0x00, 0x00,
  0x00, 0x00, 0x00, 0x00, 0x00, 0x00, 0x00, 0x00, 0x00, 0x00, 0x00, 0x00,
  0x00, 0x00, 0x00, 0x00, 0x00, 0x00, 0x00, 0x00, 0x00, 0x00, 0x00, 0x00,
  0x00, 0x00, 0x00, 0x00, 0x00, 0x00, 0x00, 0x00, 0xff, 0x00, 0x06, 0xfb,
  0x01, 0x00, 0xfd, 0x01, 0x00, 0x00, 0xfe, 0x00, 0x00, 0x00, 0x00, 0x00,
  0x02, 0x00, 0x00, 0x00, 0xf8, 0x00, 0x00, 0x01, 0x00, 0x04, 0x01, 0x04,
  0x00, 0xfd, 0x00, 0xf8, 0x00, 0x00, 0xff, 0x00, 0x00, 0xf7, 0xfa, 0xfc,
  0x00, 0x06, 0xf8, 0x00, 0x00, 0x00, 0xfb, 0x00, 0x00, 0x01, 0x00, 0x00,
  0x00, 0x00, 0x00, 0x00, 0xfa, 0x04, 0x00, 0x08, 0x00, 0xf0, 0x01, 0x01,
  0xfb, 0x00, 0x04, 0xff, 0x00, 0x00, 0x02, 0xfe, 0x00, 0x00, 0x04, 0x00,
  0x00, 0x00, 0x00, 0x00, 0xf5, 0x00, 0x00, 0x00, 0xfb, 0x00, 0x00, 0xff,
  0x00, 0x03, 0xfe, 0x03, 0x00, 0x04, 0x00, 0xfd, 0x00, 0x00, 0xff, 0x00,
  0x00, 0xfc, 0x00, 0x04, 0x00, 0xff, 0x01, 0x00, 0x00, 0x00, 0x04, 0x00,
  0x00, 0x00, 0x00, 0x00, 0x00, 0x00, 0x00, 0x00, 0x00, 0xfa, 0x00, 0x00,
  0x00, 0xfa, 0xfe, 0x00, 0x00, 0x01, 0x01, 0x00, 0xfe, 0xfe, 0x02, 0x00,
  0x00, 0x00, 0x00, 0xfd, 0xff, 0xfe, 0x00, 0xff, 0x00, 0x00, 0xfe, 0x02,
  0x02, 0x01, 0x00, 0x00, 0xff, 0x00, 0x02, 0x00, 0x00, 0x01, 0xff, 0x00,
  0x03, 0x00, 0x00, 0x01, 0xff, 0x00, 0xfe, 0x02, 0x00, 0xfd, 0x00, 0xff,
  0x01, 0x00, 0xff, 0x00, 0x04, 0x00, 0xfe, 0xfe, 0x05, 0x00, 0x01, 0x00,
  0xff, 0xff, 0xfb, 0x00, 0x03, 0x00, 0xfc, 0x01, 0x00, 0x02, 0xff, 0x00,
  0x00, 0xff, 0x00, 0x01, 0x02, 0x00, 0x01, 0x00, 0x00, 0x01, 0x00, 0x00,
  0x00, 0xff, 0x02, 0x01, 0x00, 0x00, 0x00, 0x00, 0x00, 0x01, 0x01, 0x00,
  0x03, 0x00, 0x00, 0xfe, 0xff, 0x00, 0x01, 0xff, 0x01, 0x00, 0xff, 0x00,
  0x01, 0x00, 0x00, 0x00, 0x00, 0x00, 0xfe, 0x01, 0x00, 0x00, 0xfc, 0x02,
  0xfe, 0x00, 0x01, 0x00, 0x00, 0x03, 0xfe, 0x00, 0x01, 0x00, 0x01, 0x00,
  0x01, 0x00, 0x00, 0x00, 0x06, 0xf9, 0x01, 0xfe, 0xfc, 0x03, 0x01, 0xfc,
  0x00, 0xfe, 0xfa, 0xf7, 0x00, 0x01, 0x07, 0xff, 0x00, 0xfc, 0x03, 0xff,
  0xfa, 0x00, 0x04, 0x00, 0xf9, 0xff, 0xf8, 0x00, 0xfa, 0x00, 0x03, 0xf1,
  0x02, 0x00, 0x04, 0x00, 0xfe, 0x00, 0x00, 0xf7, 0xfe, 0x00, 0xfe, 0xff,
  0xfc, 0x0e, 0xff, 0xfe, 0x02, 0x01, 0xfe, 0xff, 0xfd, 0x00, 0xfc, 0x00,
  0xfc, 0x00, 0x07, 0xf8, 0x00, 0x01, 0x00, 0x00, 0x00, 0xfd, 0x00, 0x00,
  0x00, 0x00, 0x00, 0xff, 0x00, 0xfb, 0xfd, 0x03, 0x00, 0xfa, 0x00, 0x00,
  0xff, 0xfc, 0xfe, 0x00, 0xfe, 0xff, 0x03, 0x00, 0xff, 0x00, 0x01, 0x00,
  0xfd, 0x00, 0x00, 0x08, 0xfd, 0x00, 0x00, 0x00, 0x00, 0x00, 0x00, 0xfc,
  0x01, 0x00, 0xff, 0xfe, 0x02, 0xf9, 0x00, 0x01, 0xff, 0x00, 0x01, 0xff,
  0x00, 0x00, 0x00, 0x00, 0x03, 0x00, 0xfb, 0xff, 0xf8, 0x01, 0x19, 0x07,
  0xfd, 0x02, 0xe6, 0xea, 0x00, 0xfd, 0x0a, 0x00, 0x00, 0x05, 0x04, 0x03,
  0xf1, 0x01, 0x04, 0x00, 0xfa, 0xfe, 0x0a, 0x04, 0xfe, 0xf2, 0x0a, 0xdc,
  0xff, 0xf5, 0x00, 0xed, 0xfe, 0x01, 0xfe, 0x04, 0x02, 0x09, 0xec, 0xec,
  0x03, 0xfe, 0xf6, 0x01, 0xfe, 0xfe, 0xfc, 0x00, 0xff, 0x00, 0x02, 0xfc,
  0x00, 0x01, 0x00, 0x02, 0xf2, 0x00, 0x01, 0x0d, 0x00, 0xf8, 0xfe, 0xf0,
  0x0a, 0x01, 0xe3, 0xf0, 0xfb, 0x03, 0xfa, 0x06, 0x00, 0x00, 0xeb, 0x00,
  0x03, 0x03, 0x01, 0x02, 0xe8, 0x06, 0xff, 0x00, 0x05, 0xff, 0x05, 0x02,
  0x01, 0xf1, 0xfa, 0xe8, 0x01, 0xfa, 0x02, 0xf9, 0x01, 0x01, 0x02, 0x04,
  0x02, 0x0b, 0x00, 0xeb, 0x01, 0x00, 0xfa, 0x01, 0xff, 0x01, 0x02, 0x00,
  0x01, 0x04, 0x00, 0x01, 0xff, 0x00, 0x02, 0xff, 0xf1, 0xf7, 0x00, 0x01,
  0x00, 0xff, 0xfb, 0xf4, 0x02, 0x11, 0x00, 0x10, 0x0d, 0x05, 0xfb, 0x02,
  0xfb, 0x01, 0x09, 0x0b, 0x0b, 0x0f, 0x12, 0x0e, 0x10, 0xed, 0xf8, 0x0c,
  0xff, 0x07, 0x13, 0xff, 0xf4, 0xf5, 0xf2, 0x14, 0xf6, 0x04, 0x02, 0x05,
  0x03, 0x13, 0xfa, 0xfc, 0xf4, 0xf8, 0x00, 0x0e, 0x14, 0xf2, 0x03, 0x02,
  0xfe, 0xfa, 0xf7, 0x09, 0x04, 0xf6, 0x05, 0xfc, 0xf7, 0xf8, 0xef, 0xff,
  0x02, 0x13, 0xf9, 0x0d, 0xf8, 0xfd, 0x07, 0x07, 0x02, 0x0e, 0xfc, 0x01,
  0x03, 0xfc, 0x03, 0x01, 0x01, 0xfc, 0xfe, 0xfa, 0x05, 0xfa, 0x01, 0x00,
  0xff, 0x0c, 0x02, 0x0d, 0x05, 0x06, 0x06, 0xfe, 0xfd, 0x03, 0x00, 0x01,
  0x00, 0x07, 0xff, 0x08, 0xfd, 0x09, 0xff, 0xfe, 0x03, 0xfd, 0x02, 0x01,
  0x04, 0x00, 0x07, 0x03, 0xfc, 0x02, 0x03, 0xfa, 0x03, 0x07, 0xfc, 0x04,
  0xf8, 0x04, 0x04, 0x01, 0x02, 0xf9, 0x03, 0x02, 0xfe, 0x06, 0x05, 0x0b,
  0xfd, 0x09, 0x02, 0xf8, 0xe7, 0xf0, 0xfc, 0xf9, 0xe8, 0x0b, 0x01, 0x10,
  0x10, 0x14, 0xf7, 0xf6, 0x00, 0x0a, 0xfb, 0xf0, 0xfc, 0xfb, 0xf7, 0xfd,
  0x09, 0xef, 0x0c, 0x00, 0x0b, 0xfa, 0x0a, 0xfd, 0xf3, 0xf3, 0xff, 0x18,
  0xe8, 0x07, 0x04, 0xf7, 0xf1, 0xf6, 0x06, 0xf6, 0x0f, 0xf8, 0x09, 0xfb,
  0x19, 0xe4, 0x19, 0xf1, 0x01, 0x00, 0xf7, 0x05, 0x08, 0x0a, 0xee, 0x00,
  0x0b, 0xff, 0xf4, 0x19, 0x01, 0x03, 0x00, 0x01, 0x01, 0xf7, 0x02, 0x00,
  0xfe, 0xfb, 0x07, 0x0a, 0x01, 0xff, 0xfa, 0x10, 0x01, 0x04, 0xfa, 0x0a,
  0x02, 0xf3, 0x01, 0xff, 0xfb, 0x02, 0xfb, 0x02, 0x0f, 0x01, 0x01, 0xff,
  0xed, 0xfb, 0x06, 0xec, 0x11, 0x04, 0xf8, 0xfa, 0xf7, 0xfe, 0x03, 0x05,
  0x0e, 0x0d, 0x01, 0xf5, 0x12, 0xf6, 0x0f, 0x03, 0x00, 0x03, 0x13, 0xff,
  0x00, 0x07, 0xf9, 0x01, 0xf7, 0x01, 0x0a, 0x12, 0x0f, 0x05, 0xef, 0x0b,
  0xf7, 0x06, 0xec, 0x03, 0x01, 0x02, 0xec, 0x00, 0xfe, 0x03, 0x03, 0x08,
  0xe8, 0x06, 0xff, 0x00, 0xf4, 0x05, 0xff, 0x00, 0xff, 0xf4, 0xfb, 0xf0,
  0x02, 0xfb, 0x04, 0xf1, 0x01, 0xfe, 0xfd, 0x05, 0x03, 0xee, 0x01, 0xff,
  0x03, 0xf3, 0xed, 0x01, 0xfc, 0xfe, 0xeb, 0x01, 0x02, 0x0a, 0x03, 0xf5,
  0x02, 0x05, 0x02, 0x03, 0xf1, 0xf3, 0x03, 0xfe, 0x02, 0x0d, 0xfc, 0xf6,
  0xea, 0x01, 0xe9, 0xfb, 0x02, 0x06, 0x05, 0xf9, 0x00, 0x01, 0xf6, 0x00,
  0x07, 0x01, 0xfe, 0x08, 0xe3, 0x0d, 0x01, 0x01, 0xf6, 0xfe, 0x01, 0x10,
  0x03, 0x00, 0x08, 0x13, 0x02, 0xf8, 0x05, 0xfb, 0x03, 0x03, 0xff, 0x06,
  0x04, 0x01, 0x00, 0xf3, 0x03, 0x08, 0xf4, 0x02, 0xfe, 0x01, 0x01, 0x01,
  0x02, 0xfe, 0x03, 0x0a, 0xff, 0xff, 0x03, 0x03, 0x00, 0xf3, 0x01, 0xfe,
  0x02, 0xe6, 0xfd, 0x02, 0x06, 0xf2, 0x04, 0x04, 0xff, 0x21, 0x1d, 0x04,
  0x2a, 0x08, 0x05, 0xf1, 0x17, 0xf2, 0xf6, 0xe3, 0x09, 0xf3, 0x0e, 0xf7,
  0x11, 0xe2, 0x07, 0xfa, 0xe9, 0x04, 0xf2, 0x04, 0x1c, 0xf9, 0xe8, 0x11,
  0x12, 0xe3, 0x00, 0xe1, 0x11, 0x07, 0x01, 0xfa, 0x11, 0x09, 0x05, 0xf8,
  0x0d, 0xe5, 0x1f, 0xd5, 0xdb, 0xf7, 0xfa, 0x1e, 0xe8, 0x17, 0x2c, 0x07,
  0xfc, 0x04, 0x28, 0x04, 0x0c, 0x09, 0x0f, 0xef, 0x05, 0x12, 0xfe, 0x01,
  0x16, 0x02, 0xfe, 0xfd, 0xf3, 0x02, 0xfa, 0xea, 0x05, 0x02, 0x06, 0xff,
  0x01, 0xff, 0xff, 0xf9, 0xfe, 0x0f, 0xfe, 0x08, 0x0b, 0x02, 0xf8, 0xfe,
  0x01, 0xfc, 0xfd, 0x00, 0x01, 0xef, 0xf9, 0x11, 0x00, 0xff, 0xfb, 0x03,
  0xf9, 0xf9, 0xff, 0xf9, 0xf3, 0xf9, 0xf2, 0x00, 0x03, 0x04, 0xee, 0x06,
  0x06, 0x02, 0xfb, 0x03, 0xfb, 0xff, 0x15, 0x02, 0x09, 0x01, 0x01, 0xf9,
  0x1c, 0x00, 0x0b, 0x12, 0xd9, 0xe9, 0xf2, 0x12, 0xe3, 0xfe, 0x1f, 0x1d,
  0xfb, 0xdf, 0x0f, 0xfe, 0x05, 0xe7, 0x22, 0xe8, 0xff, 0xe6, 0x15, 0x22,
  0xf6, 0xdc, 0xfd, 0x15, 0xe5, 0xec, 0xf9, 0x1c, 0x0b, 0x04, 0xd8, 0xf3,
  0x21, 0x1d, 0xf3, 0x01, 0x05, 0x01, 0xec, 0xf3, 0x01, 0xdf, 0xf9, 0xde,
  0x1e, 0xf9, 0xec, 0x1d, 0x11, 0x0f, 0x1d, 0xfd, 0xe7, 0x04, 0x0e, 0xe2,
  0xe5, 0x01, 0x18, 0x17, 0xff, 0xfb, 0x05, 0x06, 0xf8, 0xfb, 0x0f, 0xfe,
  0xf6, 0x07, 0x01, 0xed, 0xfe, 0x00, 0x09, 0x07, 0x03, 0xf7, 0x0b, 0x02,
  0xff, 0x04, 0x00, 0x0c, 0xed, 0x04, 0xe9, 0xfd, 0xf6, 0x04, 0xf7, 0x04,
  0x09, 0x0a, 0xff, 0x0e, 0x0d, 0xfa, 0x07, 0x08, 0xf9, 0xf7, 0xfb, 0x03,
  0x03, 0x01, 0x0a, 0xf4, 0xf9, 0xec, 0xfe, 0xfd, 0x0d, 0x07, 0xf0, 0x02,
  0xfb, 0xfc, 0xf6, 0xfd, 0xe7, 0x09, 0xfb, 0xff, 0xec, 0xfe, 0x10, 0x15,
  0x16, 0xfc, 0xdd, 0x09, 0x00, 0x00, 0x07, 0x06, 0xf1, 0xf2, 0x0d, 0xff,
  0xfc, 0xe9, 0x02, 0xfd, 0xdd, 0x04, 0xf0, 0xdf, 0x02, 0x0f, 0x0d, 0x21,
  0xf6, 0xea, 0xff, 0x10, 0x01, 0xfd, 0x01, 0xff, 0xff, 0x0b, 0xf7, 0xe9,
  0xfa, 0xf7, 0x12, 0x00, 0xfc, 0x03, 0xf4, 0x00, 0xfe, 0x08, 0xf8, 0x1c,
  0xff, 0xf5, 0xfb, 0xff, 0xe1, 0xee, 0xf8, 0xeb, 0xff, 0x1e, 0xe8, 0xe4,
  0xf0, 0xff, 0x18, 0xfa, 0x14, 0x00, 0xea, 0x08, 0x00, 0xff, 0xf1, 0x02,
  0xff, 0xf7, 0xec, 0xff, 0xcb, 0x12, 0xfb, 0x00, 0x11, 0x14, 0x0f, 0xeb,
  0xff, 0x04, 0x05, 0xed, 0x04, 0x13, 0xfa, 0x05, 0x00, 0x01, 0x0b, 0xff,
  0xff, 0x0b, 0xf2, 0xff, 0xf1, 0x13, 0xf5, 0x00, 0x03, 0x01, 0xe3, 0xff,
  0x01, 0xef, 0x01, 0x17, 0x00, 0xff, 0x0b, 0xfd, 0xf4, 0xdf, 0xfc, 0x05,
  0xfd, 0xfd, 0xfc, 0x07, 0x0a, 0xf0, 0xe5, 0x05, 0x1f, 0xf1, 0xf0, 0x1c,
  0x0d, 0x10, 0xe1, 0x17, 0xf8, 0x24, 0xd3, 0x0e, 0xe7, 0x1d, 0x07, 0x28,
  0x26, 0xff, 0xe6, 0x1d, 0x1e, 0xf4, 0x1f, 0x1d, 0xff, 0x1a, 0xf5, 0x07,
  0x0c, 0xe1, 0x1a, 0xde, 0xd0, 0x0d, 0x10, 0xf6, 0x08, 0x26, 0xed, 0xe6,
  0x1e, 0xf6, 0x16, 0x00, 0x01, 0xf2, 0x1e, 0x0f, 0x29, 0xf7, 0x26, 0xf3,
  0x2c, 0xd1, 0xdb, 0x01, 0x22, 0x13, 0x04, 0xdd, 0x0a, 0xe9, 0xf8, 0x0f,
  0x25, 0xfb, 0xfa, 0xf7, 0x04, 0xfa, 0xdc, 0x14, 0xfc, 0xdf, 0x12, 0x07,
  0xe5, 0x1b, 0x08, 0xd4, 0x1a, 0xe8, 0x18, 0xe9, 0xdd, 0xf6, 0x06, 0xf5,
  0xfe, 0xf9, 0xf1, 0xf5, 0xf6, 0x13, 0xf4, 0x06, 0x14, 0xe4, 0x21, 0xfd,
  0xf0, 0xda, 0xee, 0x10, 0xd6, 0x0a, 0xd6, 0x1d, 0xef, 0x18, 0x13, 0x18,
  0x1a, 0xeb, 0xfd, 0x0a, 0xf1, 0xf4, 0x12, 0x0f, 0x1b, 0xe0, 0xea, 0x22,
  0xff, 0x22, 0x0c, 0xf5, 0xe0, 0xe2, 0xf3, 0xe3, 0xf8, 0x0c, 0x0b, 0x27,
  0xf5, 0x23, 0x19, 0xfd, 0x01, 0xe9, 0xd9, 0xd9, 0x07, 0xf1, 0x1a, 0xf3,
  0x0b, 0x1a, 0xfe, 0x0e, 0x21, 0xe9, 0xe9, 0xf1, 0x08, 0xfd, 0xe3, 0x25,
  0xdb, 0xe9, 0x17, 0x08, 0xf1, 0xfc, 0x09, 0x08, 0x22, 0x18, 0x2b, 0xd5,
  0xfc, 0xcf, 0xf5, 0x00, 0xde, 0xe2, 0xfa, 0x20, 0x0f, 0xea, 0xf8, 0xf7,
  0xd6, 0x07, 0xe5, 0xe7, 0xff, 0x0c, 0x12, 0x04, 0xf4, 0xe8, 0x08, 0xdf,
  0xed, 0x0e, 0x18, 0xd4, 0x1e, 0x0c, 0xf1, 0x27, 0x05, 0xf3, 0x0c, 0x0b,
  0x0c, 0x11, 0x11, 0x01, 0x0d, 0x02, 0x13, 0x11, 0x03, 0x03, 0xff, 0xf2,
  0x21, 0x09, 0xe7, 0xe7, 0x05, 0xee, 0xe1, 0x0e, 0xf0, 0xfc, 0x15, 0x09,
  0x0a, 0x08, 0xfc, 0xfb, 0xf0, 0xd5, 0xd5, 0xe2, 0x23, 0x15, 0x1f, 0x05,
  0x05, 0xe8, 0xf9, 0xfd, 0xd5, 0xe6, 0xff, 0x08, 0x00, 0x00, 0x00, 0x00,
  0x00, 0x00, 0x00, 0x00, 0x00, 0x00, 0x00, 0x00, 0x00, 0x00, 0x00, 0x00,
  0x00, 0x00, 0x00, 0x00, 0x00, 0x00, 0x00, 0x00, 0x00, 0x00, 0x00, 0x00,
  0x00, 0x00, 0x00, 0x00, 0x00, 0x00, 0x00, 0x00, 0x00, 0x00, 0x00, 0x00,
  0x00, 0x00, 0x00, 0x00, 0x00, 0x00, 0x00, 0x00, 0x00, 0x00, 0x00, 0x00,
  0x00, 0x00, 0x00, 0x00, 0x00, 0x00, 0x00, 0x00, 0x00, 0x00, 0x00, 0x00,
  0x00, 0x00, 0x00, 0x00, 0x00, 0x00, 0x00, 0x00, 0x00, 0x00, 0x00, 0x00,
  0x00, 0x00, 0x00, 0x00, 0x00, 0x00, 0x00, 0x00, 0x00, 0x00, 0x00, 0x00,
  0x00, 0x00, 0x00, 0x00, 0x00, 0x00, 0x00, 0x00, 0x00, 0x00, 0x00, 0x00,
  0x00, 0x00, 0x00, 0x00, 0x00, 0x00, 0x00, 0x00, 0x00, 0x00, 0x00, 0x00,
  0x00, 0x00, 0x00, 0x00, 0x00, 0x00, 0x00, 0x00, 0x00, 0x00, 0x00, 0x00,
  0x00, 0x00, 0x00, 0x00, 0x00, 0x00, 0x00, 0x00, 0x00, 0x00, 0x00, 0x00,
  0x00, 0x00, 0x00, 0x00, 0x00, 0x00, 0x00, 0x00, 0x00, 0x00, 0x00, 0x00,
  0x00, 0x00, 0x00, 0x00, 0x00, 0x00, 0x00, 0x00, 0x00, 0x00, 0x00, 0x00,
  0x00, 0x00, 0x00, 0x00, 0x00, 0x00, 0x00, 0x00, 0x00, 0x00, 0x00, 0x00,
  0x00, 0x00, 0x00, 0x00, 0x00, 0x00, 0x00, 0x00, 0x00, 0x00, 0x00, 0x00,
  0x00, 0x00, 0x00, 0x00, 0x00, 0x00, 0x00, 0x00, 0x00, 0x00, 0x00, 0x00,
  0x00, 0x00, 0x00, 0x00, 0x00, 0x00, 0x00, 0x00, 0x00, 0x00, 0x00, 0x00,
  0x00, 0x00, 0x00, 0x00, 0x00, 0x00, 0x00, 0x00, 0x00, 0x00, 0x00, 0x00,
  0x00, 0x00, 0x00, 0x00, 0x00, 0x00, 0x00, 0x00, 0x00, 0x00, 0x00, 0x00,
  0x00, 0x00, 0x00, 0x00, 0x00, 0x00, 0x00, 0x00, 0x00, 0x00, 0x00, 0x00,
  0x00, 0x00, 0x00, 0x00, 0x00, 0x00, 0x00, 0x00, 0x00, 0x00, 0x00, 0x00,
  0x00, 0x00, 0x00, 0x00, 0x00, 0x00, 0x00, 0x00, 0x00, 0x00, 0x00, 0x00,
  0x00, 0x00, 0x00, 0x00, 0x00, 0x00, 0x00, 0x00, 0x00, 0x00, 0x00, 0x00,
  0x00, 0x00, 0x00, 0x00, 0x00, 0x00, 0x00, 0x00, 0x00, 0x00, 0x00, 0x00,
  0x00, 0x00, 0x00, 0x00, 0x00, 0x00, 0x00, 0x00, 0x00, 0x00, 0x00, 0x00,
  0x00, 0x00, 0x00, 0x00, 0x00, 0x00, 0x00, 0x00, 0x00, 0x00, 0x00, 0x00,
  0x00, 0x00, 0x00, 0x00, 0x00, 0x00, 0x00, 0x00, 0x00, 0x00, 0x00, 0x00,
  0x00, 0x00, 0x00, 0x00, 0x00, 0x00, 0x00, 0x00, 0x00, 0x00, 0x00, 0x00,
  0x00, 0x00, 0x00, 0x00, 0x00, 0x00, 0x00, 0x00, 0x00, 0x00, 0x00, 0x00,
  0x00, 0x00, 0x00, 0x00, 0x00, 0x00, 0x00, 0x00, 0x00, 0x00, 0x00, 0x00,
  0x00, 0x00, 0x00, 0x00, 0x00, 0x00, 0x00, 0x00, 0x00, 0x00, 0x00, 0x00,
  0x00, 0x00, 0x00, 0x00, 0x00, 0x00, 0x00, 0x00, 0x10, 0xfa, 0x1f, 0xf4,
  0xfd, 0x00, 0x0a, 0xdf, 0x00, 0x00, 0x07, 0x00, 0x00, 0x00, 0xfe, 0x00,
  0xf9, 0x00, 0xfe, 0x00, 0x0b, 0xfb, 0xfe, 0x07, 0x00, 0xe1, 0x10, 0x0f,
  0x00, 0x04, 0x00, 0x0a, 0x00, 0x00, 0xff, 0x00, 0x00, 0xe6, 0x0e, 0xf9,
  0x01, 0x0b, 0x01, 0x00, 0xfe, 0x00, 0x1b, 0x00, 0x00, 0xf9, 0x00, 0xf5,
  0x00, 0x00, 0x00, 0x04, 0xf2, 0x1c, 0x00, 0x0c, 0x00, 0xef, 0x06, 0x0f,
  0x0a, 0xff, 0xff, 0xfb, 0x04, 0x00, 0xee, 0xfd, 0x00, 0x00, 0xe8, 0x00,
  0x00, 0x04, 0xfe, 0x00, 0x0b, 0x00, 0x02, 0x00, 0xeb, 0x04, 0x00, 0xf7,
  0x00, 0xfd, 0xf1, 0xea, 0x00, 0xec, 0x00, 0x18, 0x00, 0x00, 0x0f, 0x00,
  0x00, 0xeb, 0x03, 0x08, 0x01, 0xf6, 0xdf, 0x00, 0xff, 0x00, 0x03, 0x00,
  0x00, 0x01, 0x00, 0xfe, 0x00, 0x00, 0x00, 0xfd, 0xed, 0x19, 0x00, 0xe2,
  0x00, 0x20, 0xeb, 0xf5, 0x0c, 0xf9, 0xfb, 0xff, 0x01, 0xf9, 0x03, 0x00,
  0xff, 0x00, 0xfc, 0xfc, 0xf9, 0xfa, 0x06, 0xfc, 0xfe, 0x01, 0xff, 0xfe,
  0x04, 0xf8, 0xfc, 0xfe, 0xfa, 0x01, 0xfa, 0x00, 0x02, 0xf8, 0x08, 0xfe,
  0xf8, 0x02, 0xfe, 0xf5, 0xfd, 0xfb, 0x0a, 0xfb, 0x00, 0x07, 0xfd, 0xfc,
  0xfd, 0x00, 0x00, 0xfd, 0x01, 0xf6, 0xff, 0xfc, 0xfd, 0x00, 0x03, 0x00,
  0xfc, 0x00, 0xf3, 0xf9, 0xfb, 0xfb, 0xfc, 0xfa, 0xfc, 0xfa, 0xfb, 0xff,
  0xff, 0xfe, 0x00, 0xff, 0x00, 0x00, 0xfe, 0x02, 0xff, 0xfe, 0xff, 0xff,
  0x04, 0x06, 0x00, 0xfe, 0xff, 0x00, 0xfd, 0x00, 0x00, 0xfe, 0x01, 0xff,
  0x00, 0xfc, 0x00, 0xfd, 0x00, 0xff, 0x02, 0xfe, 0x00, 0xfe, 0xf5, 0x00,
  0x00, 0xfe, 0xff, 0xff, 0x00, 0x00, 0xfd, 0x00, 0x00, 0xff, 0xff, 0xfe,
  0x00, 0xff, 0x00, 0x00, 0x00, 0xfe, 0x03, 0xff, 0x00, 0xff, 0xfa, 0x00,
  0x0d, 0xd4, 0x00, 0xf0, 0x16, 0x1f, 0xfe, 0x08, 0x07, 0xff, 0xf7, 0xe7,
  0xfc, 0xef, 0x01, 0xdc, 0xff, 0xf4, 0xf3, 0x0a, 0x08, 0x19, 0x18, 0xf0,
  0x15, 0x0d, 0xe0, 0x01, 0x1d, 0xfa, 0x00, 0xec, 0xe4, 0xdf, 0xe3, 0x1f,
  0xe3, 0xf1, 0x14, 0x09, 0x13, 0x0a, 0xfe, 0xef, 0xff, 0x18, 0xf0, 0x17,
  0x09, 0xf3, 0x07, 0x12, 0xe2, 0x15, 0xe1, 0x03, 0xf0, 0xf9, 0xef, 0xf9,
  0xeb, 0xff, 0xed, 0xe3, 0xfc, 0xff, 0x00, 0x01, 0xed, 0xf3, 0xff, 0x05,
  0xff, 0xfe, 0xff, 0x0c, 0xfc, 0xea, 0xed, 0xee, 0x00, 0x05, 0x02, 0x0c,
  0x00, 0xe6, 0x03, 0x01, 0xea, 0x00, 0xff, 0x00, 0x04, 0x01, 0xf1, 0x00,
  0xf8, 0x09, 0xfa, 0x00, 0xf2, 0x02, 0x03, 0x00, 0xf7, 0xff, 0x00, 0x1e,
  0x04, 0x00, 0x02, 0xf6, 0xec, 0xf8, 0xf4, 0x05, 0x06, 0xf7, 0xf8, 0x00,
  0x05, 0x00, 0xf5, 0x00, 0xfc, 0x00, 0x12, 0xf9, 0x03, 0x01, 0x0c, 0xfc,
  0xfe, 0xfe, 0xf9, 0xf6, 0x00, 0x00, 0x00, 0x01, 0xff, 0x03, 0xfd, 0x00,
  0xfe, 0x00, 0xf8, 0x00, 0x00, 0xf8, 0xfd, 0xff, 0x01, 0x02, 0xf7, 0xfb,
  0x00, 0xf5, 0x01, 0x05, 0xff, 0xfe, 0x03, 0xff, 0xff, 0xf0, 0x01, 0x03,
  0x00, 0xee, 0x02, 0x00, 0x01, 0x00, 0x00, 0x00, 0x00, 0xf6, 0x01, 0xf8,
  0x00, 0xfd, 0x03, 0x00, 0xfc, 0x02, 0xfe, 0x07, 0x00, 0xf5, 0x01, 0x01,
  0x03, 0x04, 0x0e, 0x04, 0x00, 0x02, 0xfa, 0xfd, 0x00, 0x00, 0x03, 0x00,
  0xff, 0x00, 0xf6, 0xff, 0x0a, 0xfc, 0xfe, 0x00, 0x01, 0xfb, 0xfa, 0xf8,
  0x00, 0xff, 0x02, 0x01, 0xff, 0x01, 0x00, 0xfe, 0xff, 0xff, 0x04, 0xfe,
  0xfe, 0xf6, 0x07, 0xfd, 0xff, 0x03, 0x03, 0x00, 0x04, 0x00, 0x04, 0x00,
  0xff, 0xf4, 0xfe, 0x02, 0x00, 0xf5, 0x02, 0x00, 0x03, 0xff, 0x00, 0x02,
  0xff, 0xef, 0x04, 0xfe, 0xfa, 0x04, 0xfc, 0xf6, 0xf9, 0x05, 0xf5, 0xf4,
  0xfb, 0xfc, 0xed, 0xf9, 0x0a, 0x02, 0x09, 0xf8, 0x01, 0x04, 0xfb, 0x01,
  0x02, 0x05, 0x03, 0x01, 0x08, 0xf4, 0xfc, 0xf3, 0xfb, 0x01, 0xfa, 0xf2,
  0xf0, 0x03, 0xfb, 0xfe, 0xfb, 0xf1, 0x01, 0x06, 0xf7, 0xf2, 0xff, 0x08,
  0xf3, 0xfd, 0xf1, 0x02, 0x02, 0x02, 0xff, 0x09, 0xf8, 0x03, 0x01, 0xf9,
  0x03, 0xf4, 0xf4, 0xf6, 0xfd, 0x01, 0xf8, 0x03, 0x00, 0xf9, 0xf9, 0xf7,
  0x05, 0x02, 0x01, 0xfd, 0xff, 0xff, 0xfb, 0x01, 0x09, 0xf8, 0x00, 0x03,
  0x00, 0x01, 0xfa, 0x04, 0xf5, 0xfb, 0x02, 0xfe, 0x04, 0x00, 0xfc, 0xfb,
  0x00, 0xfb, 0xfd, 0xfd, 0xf9, 0xf9, 0xfa, 0xf8, 0xfc, 0xfd, 0xf5, 0xf9,
  0x04, 0xfc, 0xf7, 0x05, 0xf8, 0xff, 0xff, 0x00, 0xfb, 0xff, 0xfc, 0xfd,
  0x02, 0x02, 0x01, 0xfd, 0xf7, 0xf3, 0x05, 0xfc, 0x03, 0xfe, 0xf6, 0xfe,
  0xfb, 0xed, 0xf6, 0xf6, 0xff, 0xf8, 0xfa, 0xfc, 0x07, 0x08, 0xfc, 0x04,
  0x04, 0xfa, 0xfd, 0xfc, 0xfd, 0xfc, 0x04, 0x03, 0xfa, 0xfc, 0xfd, 0x08,
  0x05, 0xf9, 0xf9, 0xfb, 0xfd, 0xfc, 0x04, 0xfb, 0xf2, 0x01, 0x01, 0xf0,
  0x00, 0xff, 0xf6, 0xfb, 0xed, 0xfd, 0xfc, 0x06, 0x00, 0xf8, 0xfb, 0xfa,
  0x03, 0x04, 0x11, 0xff, 0xfa, 0xf7, 0xff, 0x01, 0xf7, 0xfd, 0x09, 0xfa,
  0x00, 0xfd, 0xff, 0xf6, 0xff, 0xf9, 0xfe, 0xfe, 0xfb, 0xf7, 0xfe, 0xf9,
  0xf8, 0xff, 0xff, 0xff, 0xfa, 0xf6, 0xfb, 0xf1, 0x01, 0xfb, 0x03, 0xfe,
  0x01, 0xff, 0xfc, 0x07, 0x09, 0xfb, 0xf9, 0xff, 0x03, 0xfd, 0x0d, 0x00,
  0xf6, 0x00, 0x05, 0xf1, 0x01, 0xff, 0xfd, 0xfd, 0xfc, 0xfc, 0xff, 0xf8,
  0xfe, 0x05, 0xfa, 0xfe, 0x02, 0xf9, 0xfa, 0xfd, 0xf2, 0x08, 0x01, 0x01,
  0xf7, 0x00, 0xf9, 0x00, 0xfb, 0xff, 0x0c, 0x01, 0x00, 0x00, 0x00, 0x00,
  0x00, 0x00, 0x00, 0x00, 0x00, 0x00, 0x00, 0x00, 0x00, 0x00, 0x00, 0x00,
  0x00, 0x00, 0x00, 0x00, 0x00, 0x00, 0x00, 0x00, 0x00, 0x00, 0x00, 0x00,
  0x00, 0x00, 0x00, 0x00, 0x00, 0x00, 0x00, 0x00, 0x00, 0x00, 0x00, 0x00,
  0x00, 0x00, 0x00, 0x00, 0x00, 0x00, 0x00, 0x00, 0x00, 0x00, 0x00, 0x00,
  0x00, 0x00, 0x00, 0x00, 0x00, 0x00, 0x00, 0x00, 0x00, 0x00, 0x00, 0x00,
  0x00, 0x00, 0x00, 0x00, 0x00, 0x00, 0x00, 0x00, 0x00, 0x00, 0x00, 0x00,
  0x00, 0x00, 0x00, 0x00, 0x00, 0x00, 0x00, 0x00, 0x00, 0x00, 0x00, 0x00,
  0x00, 0x00, 0x00, 0x00, 0x00, 0x00, 0x00, 0x00, 0x00, 0x00, 0x00, 0x00,
  0x00, 0x00, 0x00, 0x00, 0x00, 0x00, 0x00, 0x00, 0x00, 0x00, 0x00, 0x00,
  0x00, 0x00, 0x00, 0x00, 0x00, 0x00, 0x00, 0x00, 0x00, 0x00, 0x00, 0x00,
  0x00, 0x00, 0x00, 0x00, 0x00, 0x00, 0x00, 0x00, 0x00, 0x01, 0x00, 0x00,
  0x00, 0x00, 0x00, 0x00, 0x00, 0x00, 0x00, 0x00, 0x00, 0x00, 0x00, 0x00,
  0x01, 0x00, 0xff, 0x00, 0x00, 0x00, 0x00, 0x00, 0x00, 0x00, 0x00, 0x00,
  0x00, 0x00, 0x00, 0x01, 0x00, 0x00, 0x00, 0x01, 0x01, 0x00, 0x00, 0x00,
  0x00, 0x00, 0x01, 0x00, 0x01, 0x01, 0x00, 0x00, 0x00, 0x00, 0x00, 0x00,
  0xff, 0x01, 0x00, 0x00, 0x00, 0x00, 0x00, 0x00, 0x00, 0x00, 0x00, 0x00,
  0x00, 0x00, 0x00, 0x00, 0x00, 0x00, 0x00, 0x00, 0x00, 0x00, 0x00, 0x00,
  0x00, 0x00, 0x00, 0x00, 0x00, 0x00, 0x00, 0x00, 0x00, 0x00, 0x00, 0x00,
  0x00, 0x00, 0x00, 0x00, 0x00, 0x00, 0x00, 0x00, 0x00, 0x00, 0x00, 0x00,
  0x00, 0x00, 0x00, 0x00, 0x00, 0x00, 0x00, 0x00, 0x00, 0x00, 0x00, 0x00,
  0x00, 0x00, 0x00, 0x00, 0x00, 0x00, 0x00, 0x00, 0x00, 0x00, 0x00, 0x00,
  0x00, 0x00, 0x00, 0x00, 0x00, 0x00, 0x00, 0x00, 0x00, 0x00, 0x00, 0x01,
  0x00, 0x00, 0x00, 0x00, 0x00, 0x00, 0x00, 0x00, 0x00, 0x00, 0x00, 0x00,
  0x00, 0x00, 0x00, 0x00, 0x00, 0x00, 0x00, 0x00, 0xff, 0x00, 0x00, 0x00,
  0x00, 0x00, 0x01, 0x00, 0xff, 0x00, 0x00, 0x00, 0x00, 0x00, 0x00, 0x00,
  0x01, 0x00, 0xff, 0x00, 0x00, 0x00, 0xfe, 0x00, 0x00, 0x00, 0x00, 0x00,
  0x00, 0x00, 0x00, 0x00, 0x00, 0x00, 0x00, 0x00, 0x00, 0x00, 0x00, 0x00,
  0x00, 0x00, 0x00, 0x00, 0x00, 0x00, 0x00, 0x00, 0x00, 0x00, 0x00, 0x00,
  0x00, 0x00, 0x00, 0x00, 0x00, 0x01, 0x00, 0x00, 0x00, 0x00, 0x00, 0x00,
  0xff, 0x00, 0x00, 0x00, 0x00, 0x00, 0x00, 0x00, 0x00, 0x00, 0x00, 0x00,
  0x00, 0x00, 0x00, 0x00, 0x00, 0x00, 0x00, 0x00, 0x00, 0x00, 0x00, 0x00,
  0x00, 0x00, 0x00, 0x00, 0x00, 0x00, 0x00, 0x00, 0xfe, 0xff, 0xfc, 0xfc,
  0xfc, 0x00, 0xfd, 0xfc, 0x00, 0x00, 0xfc, 0x00, 0xff, 0x00, 0xfe, 0x00,
  0xfa, 0xff, 0xfe, 0x00, 0xfe, 0xfc, 0x00, 0xfe, 0x00, 0xfe, 0x00, 0xfb,
  0x00, 0xff, 0x00, 0xfb, 0x00, 0x00, 0xfd, 0x00, 0x00, 0xfd, 0xfc, 0xfc,
  0x00, 0xfd, 0xfc, 0x00, 0xfd, 0x00, 0xfd, 0x00, 0x00, 0xfe, 0x00, 0xfd,
  0x00, 0x00, 0x00, 0x00, 0xfb, 0xfb, 0x00, 0xfa, 0x00, 0xfb, 0xfe, 0xfc,
  0xfd, 0xff, 0xfb, 0xfb, 0xfb, 0x00, 0xfc, 0xfd, 0x00, 0x00, 0xfb, 0x00,
  0x00, 0xfe, 0xff, 0x00, 0xfa, 0x00, 0xfe, 0x00, 0xfc, 0xfd, 0x00, 0xfe,
  0x00, 0xfc, 0x00, 0xfa, 0x00, 0xfd, 0x00, 0xfc, 0x00, 0x00, 0xfd, 0x00,
  0x00, 0xfb, 0xfa, 0xfd, 0x00, 0xfe, 0xfb, 0x00, 0xfd, 0x00, 0xfc, 0x00,
  0x00, 0xfe, 0x00, 0xfd, 0x00, 0x01, 0x00, 0x00, 0xfc, 0xfb, 0x00, 0xfa,
  0x00, 0xfc, 0xfd, 0xfb, 0x01, 0xfd, 0x00, 0x03, 0x02, 0xfd, 0x02, 0x00,
  0xff, 0xff, 0x03, 0xfd, 0xfc, 0x00, 0xff, 0xfd, 0x04, 0xfe, 0xff, 0xfe,
  0x02, 0x00, 0xfe, 0x00, 0xff, 0x00, 0xfe, 0x02, 0x00, 0x01, 0xff, 0x00,
  0xfe, 0xff, 0x01, 0xfc, 0xff, 0x02, 0x00, 0x02, 0xfd, 0x02, 0x03, 0xfd,
  0xff, 0x00, 0x01, 0x00, 0xff, 0xff, 0xfd, 0x01, 0xfe, 0xfe, 0xff, 0xfe,
  0x02, 0x01, 0xfe, 0x00, 0xfe, 0x03, 0x00, 0xff, 0xff, 0xff, 0x01, 0x01,
  0x02, 0xfe, 0x01, 0x00, 0x00, 0xff, 0x01, 0x00, 0xfe, 0x01, 0x01, 0xff,
  0x02, 0x00, 0x00, 0xff, 0x01, 0x00, 0x01, 0x00, 0xff, 0xff, 0xff, 0x01,
  0x00, 0x01, 0xff, 0x01, 0xff, 0xfe, 0x00, 0xff, 0xff, 0x01, 0xfd, 0xff,
  0x00, 0x00, 0x01, 0xff, 0x00, 0x01, 0x01, 0xff, 0xff, 0x01, 0xff, 0x00,
  0xff, 0x00, 0xff, 0xff, 0x01, 0x00, 0x00, 0x01, 0xff, 0x02, 0x00, 0x01,
  0xff, 0xfc, 0x00, 0x02, 0x01, 0x01, 0x02, 0x00, 0x02, 0x01, 0xff, 0x06,
  0x06, 0xff, 0x02, 0xfe, 0x01, 0xff, 0xff, 0x01, 0x00, 0x03, 0x00, 0xfe,
  0xff, 0x00, 0x05, 0x02, 0x07, 0x03, 0x00, 0x03, 0x07, 0x07, 0x01, 0xfd,
  0x01, 0x00, 0x00, 0x00, 0xfd, 0x01, 0x01, 0x01, 0x06, 0x12, 0xff, 0x08,
  0xfc, 0x02, 0x06, 0x04, 0xfd, 0x06, 0x03, 0x01, 0x00, 0x01, 0x01, 0x01,
  0x05, 0x00, 0xff, 0x00, 0xfe, 0xff, 0x01, 0x00, 0xff, 0x00, 0x01, 0x00,
  0x01, 0x00, 0x00, 0x00, 0x01, 0xff, 0x00, 0xfa, 0x00, 0x00, 0x00, 0xff,
  0x00, 0xfe, 0xff, 0xfe, 0x00, 0xff, 0x00, 0x00, 0x01, 0x01, 0xfe, 0x00,
  0x02, 0xff, 0x00, 0xfb, 0x00, 0x00, 0x01, 0x01, 0xff, 0x00, 0x01, 0x00,
  0x01, 0x00, 0x00, 0xff, 0x00, 0xfe, 0xff, 0x01, 0xff, 0x02, 0xfd, 0xfd,
  0x02, 0x00, 0x01, 0x00, 0x01, 0x00, 0xfd, 0xff, 0x30, 0x16, 0x1e, 0x4b,
  0xc6, 0xf7, 0xd8, 0x11, 0xf9, 0x05, 0xc5, 0x05, 0x09, 0x09, 0xe1, 0xf5,
  0x33, 0xec, 0xf0, 0x15, 0xd0, 0xed, 0x02, 0xe0, 0x10, 0xde, 0xf4, 0x2d,
  0x15, 0xcb, 0x0a, 0xf4, 0xf3, 0x0b, 0xfe, 0xf3, 0x07, 0x13, 0x40, 0x50,
  0xf1, 0xe6, 0xdf, 0xfc, 0xd0, 0x02, 0xd7, 0xf4, 0x0c, 0x1a, 0x0e, 0x42,
  0x0a, 0xed, 0xf8, 0xf5, 0x36, 0x3a, 0x04, 0xcb, 0x03, 0xd9, 0x2f, 0x0e,
  0x12, 0xfc, 0x15, 0x4a, 0xf4, 0x0b, 0xfd, 0xc7, 0x00, 0x05, 0x11, 0x00,
  0xfd, 0xd8, 0xfc, 0xf2, 0x2f, 0xf2, 0xdd, 0xfe, 0x14, 0x24, 0x0a, 0xe7,
  0xf7, 0xcd, 0x10, 0x12, 0xf2, 0x2f, 0xeb, 0x31, 0xfd, 0xf0, 0x01, 0xeb,
  0x00, 0xf1, 0x44, 0xf2, 0xf7, 0xdf, 0x16, 0x09, 0x12, 0xfa, 0x2a, 0x02,
  0xf7, 0x0f, 0x13, 0x1f, 0xf4, 0x08, 0xfc, 0x0c, 0x20, 0xfe, 0x1a, 0x0a,
  0x08, 0x24, 0x20, 0xe8, 0x0f, 0x47, 0xe1, 0x00, 0xd5, 0x4d, 0x12, 0x09,
  0x29, 0xde, 0xdb, 0x28, 0x04, 0xc7, 0x06, 0xed, 0xb1, 0x01, 0xf4, 0xd4,
  0xe5, 0xef, 0x58, 0xfe, 0xbd, 0xbb, 0x63, 0xae, 0xd3, 0x40, 0xf1, 0xfc,
  0xc0, 0xcb, 0x11, 0x22, 0x11, 0xef, 0x19, 0x09, 0x41, 0x12, 0x08, 0x2b,
  0xdf, 0xea, 0xde, 0xc2, 0xa7, 0xbe, 0x1f, 0x38, 0xbd, 0x1e, 0xb6, 0xdd,
  0xd1, 0xe8, 0x2d, 0xf2, 0xf3, 0x09, 0xe8, 0xe6, 0x3a, 0x06, 0x17, 0x19,
  0xda, 0xe2, 0x33, 0xde, 0x1e, 0x11, 0xe7, 0x0b, 0xf9, 0x03, 0x32, 0x1d,
  0xec, 0x0d, 0x26, 0xca, 0xf8, 0x16, 0xde, 0x07, 0x0f, 0x0a, 0xf2, 0xe9,
  0xea, 0x24, 0x24, 0xed, 0xd2, 0x12, 0x14, 0x0c, 0x21, 0x0a, 0x43, 0x01,
  0x26, 0x0d, 0x43, 0xd5, 0x1b, 0xf4, 0x0f, 0xda, 0xf5, 0x14, 0x16, 0x21,
  0x32, 0x0f, 0xff, 0x01, 0x21, 0xd3, 0xc6, 0x2f, 0xe2, 0x00, 0x23, 0xde,
  0x48, 0x25, 0xa3, 0x15, 0xef, 0x66, 0xda, 0x0c, 0xe1, 0xef, 0xbd, 0xfc,
  0x4c, 0x24, 0xdb, 0x23, 0xb2, 0xfc, 0x09, 0x1f, 0xcd, 0xfb, 0xcf, 0xef,
  0x23, 0xd4, 0xf9, 0xde, 0x3f, 0xd0, 0xfc, 0xcf, 0xea, 0xe1, 0xe8, 0x33,
  0xcb, 0xb1, 0xb6, 0xcf, 0xdc, 0xe8, 0xe5, 0x46, 0x2e, 0xc1, 0xc2, 0xb6,
  0xd7, 0x39, 0x50, 0xff, 0xd9, 0xe3, 0xce, 0x20, 0x0a, 0xc3, 0x3c, 0xdd,
  0x10, 0xed, 0x37, 0xe9, 0x4e, 0x06, 0x24, 0xcc, 0x2a, 0x3e, 0x12, 0xee,
  0x21, 0x0a, 0x26, 0xb0, 0x19, 0x35, 0xda, 0x36, 0x1a, 0x5c, 0xd3, 0x2f,
  0xfa, 0x0e, 0x36, 0xfc, 0xfa, 0x02, 0x2a, 0x32, 0xc4, 0x21, 0xed, 0xf3,
  0xe8, 0xd9, 0xf0, 0x40, 0xe2, 0x31, 0x46, 0x22, 0xc6, 0x26, 0x47, 0xf9,
  0xd0, 0xd7, 0x03, 0x34, 0x0a, 0x2e, 0x03, 0x2c, 0x10, 0x13, 0xc8, 0xd3,
  0xc1, 0x09, 0xd0, 0x2d, 0x23, 0x2e, 0xca, 0xe2, 0xf9, 0xfb, 0xf7, 0xf3,
  0xfa, 0xfb, 0xf6, 0x00, 0x00, 0xfe, 0xf6, 0xff, 0xfd, 0xf9, 0xfd, 0x00,
  0xea, 0x00, 0xff, 0xfa, 0xfc, 0xfd, 0xff, 0xf9, 0xfd, 0xfa, 0xff, 0x02,
  0xfd, 0xf7, 0xff, 0xfa, 0xfe, 0xfd, 0xfd, 0xff, 0xff, 0xfb, 0xf9, 0xf5,
  0xfc, 0x09, 0xf9, 0x00, 0xfa, 0x00, 0xff, 0xff, 0x00, 0xff, 0xfd, 0xfe,
  0x00, 0xfe, 0xfe, 0x00, 0xf6, 0xfb, 0xff, 0xf1, 0xfd, 0x03, 0xf8, 0xf3,
  0xf1, 0xfd, 0xee, 0xf6, 0xfb, 0xff, 0xfb, 0x00, 0x00, 0x00, 0xfb, 0x00,
  0x00, 0xfe, 0xff, 0x00, 0x07, 0x03, 0xfe, 0x01, 0xfb, 0xfb, 0x01, 0xfd,
  0x00, 0xfc, 0x00, 0xec, 0x01, 0xfc, 0x00, 0xf5, 0x00, 0x01, 0xff, 0x00,
  0x00, 0x03, 0xf5, 0xf6, 0x01, 0x05, 0xf7, 0x00, 0xfd, 0x00, 0xf8, 0x00,
  0x00, 0xff, 0x00, 0xf7, 0x00, 0xff, 0x00, 0x01, 0xfe, 0xf3, 0xff, 0xf5,
  0x00, 0x09, 0xf7, 0xfd, 0xf6, 0xeb, 0xfe, 0x02, 0x03, 0x02, 0x0e, 0xf1,
  0x0f, 0xfa, 0xfa, 0x10, 0xe6, 0xe9, 0x07, 0xf4, 0xff, 0xee, 0xfd, 0xf4,
  0xfb, 0x05, 0xf6, 0x08, 0x18, 0xfa, 0xef, 0xfd, 0xec, 0xf9, 0x12, 0x02,
  0xfc, 0x14, 0x0a, 0x03, 0xf9, 0x03, 0xee, 0xed, 0xee, 0xf8, 0x0e, 0x01,
  0x05, 0xfa, 0xe9, 0x0b, 0xf9, 0xeb, 0xf5, 0xf1, 0xee, 0xfe, 0x18, 0x05,
  0xf6, 0xff, 0xe4, 0xf6, 0x03, 0xfe, 0x02, 0xfa, 0xf5, 0xf5, 0xff, 0xfe,
  0x00, 0xf9, 0xfa, 0xfd, 0xfb, 0xfc, 0x05, 0xfc, 0xfe, 0xfd, 0xfc, 0x03,
  0xfd, 0xf9, 0xff, 0xf9, 0xfc, 0xff, 0xf8, 0xfd, 0x09, 0x0a, 0x03, 0xfc,
  0xf8, 0xfa, 0x01, 0xfa, 0x0c, 0x02, 0xf9, 0xf8, 0xf4, 0xfb, 0xfb, 0x06,
  0x06, 0xff, 0xfc, 0xff, 0xf8, 0x02, 0x0a, 0x04, 0xf9, 0x02, 0x0c, 0xfc,
  0xf6, 0xfe, 0xf9, 0x05, 0xff, 0x06, 0x04, 0xfe, 0xf9, 0xfe, 0xfc, 0xfe,
  0xf9, 0xf4, 0xfe, 0xf7, 0xfa, 0xf5, 0x01, 0xf0, 0x13, 0xf1, 0x10, 0xf3,
  0xf9, 0xe4, 0xfb, 0xfe, 0xfd, 0xef, 0xfb, 0xf4, 0xfe, 0xff, 0xeb, 0xfa,
  0xff, 0xeb, 0xf1, 0xfe, 0x07, 0xf9, 0x0b, 0x04, 0xf2, 0x06, 0xf7, 0x14,
  0xf3, 0xf5, 0x07, 0xf6, 0xf0, 0xfb, 0xfb, 0xfd, 0xe7, 0xfd, 0x00, 0x14,
  0x0b, 0x03, 0xdc, 0xfb, 0x08, 0xea, 0xee, 0x00, 0xfa, 0x03, 0xf1, 0x00,
  0xf1, 0xfe, 0xf7, 0x02, 0xf9, 0xef, 0xfc, 0xff, 0xff, 0xf2, 0xf8, 0xf9,
  0xfc, 0xf8, 0xfc, 0xf4, 0xf2, 0xf7, 0xf5, 0xf7, 0xfe, 0xf4, 0xfc, 0xf9,
  0xfc, 0xf3, 0xfe, 0xfe, 0xfd, 0xfb, 0xfa, 0xfd, 0xfa, 0xfc, 0xfb, 0xfc,
  0xf8, 0xf8, 0xfb, 0x04, 0xf9, 0xfc, 0x00, 0xff, 0xf9, 0xf9, 0xfc, 0xfc,
  0xfe, 0x00, 0x02, 0x03, 0x01, 0xf8, 0xfa, 0xfb, 0x00, 0xf9, 0xf8, 0xff,
  0xfb, 0xfd, 0xf8, 0xfc, 0x02, 0xfa, 0xfd, 0xfd, 0x08, 0xfd, 0xf9, 0x05,
  0x04, 0x00, 0xfb, 0x08, 0x00, 0x00, 0xf0, 0x00, 0x00, 0x03, 0x02, 0x01,
  0xed, 0x02, 0xfe, 0x00, 0xeb, 0xfd, 0xfb, 0xfe, 0x00, 0x04, 0x00, 0xdd,
  0x01, 0xfe, 0x06, 0xf3, 0x01, 0x03, 0x09, 0x02, 0x02, 0xec, 0x0d, 0xfc,
  0x01, 0xea, 0x05, 0x00, 0xff, 0x03, 0x06, 0x01, 0x01, 0x01, 0x01, 0xef,
  0x00, 0x01, 0x01, 0xff, 0x06, 0xf6, 0x01, 0xf5, 0x01, 0xef, 0x0e, 0x04,
  0x05, 0x00, 0xe7, 0x05, 0x04, 0x02, 0x12, 0xec, 0x00, 0x00, 0x03, 0x00,
  0x03, 0x01, 0x00, 0x01, 0x10, 0x04, 0x00, 0x01, 0xf2, 0xff, 0x05, 0xf9,
  0x01, 0xf9, 0xf9, 0xf4, 0x02, 0xf7, 0x01, 0xfe, 0x01, 0xfe, 0xfe, 0x02,
  0x01, 0x02, 0xf6, 0xf7, 0x03, 0x11, 0x10, 0x00, 0x00, 0x00, 0x0c, 0x00,
  0x01, 0x05, 0x00, 0xf5, 0x00, 0x01, 0x01, 0x08, 0x05, 0xe6, 0x01, 0x06,
  0x00, 0x17, 0xfa, 0x05, 0xfb, 0xdd, 0x13, 0xfc, 0xe8, 0x05, 0x0f, 0x05,
  0x19, 0xec, 0x10, 0x18, 0xfe, 0xec, 0xe5, 0xeb, 0xfa, 0xf5, 0x02, 0xf2,
  0x02, 0x11, 0xef, 0xed, 0x12, 0x07, 0x0f, 0x07, 0xef, 0x05, 0xf2, 0xfa,
  0x02, 0x12, 0xf0, 0xfe, 0x04, 0xf8, 0xfb, 0xf4, 0xf3, 0x01, 0x07, 0xf7,
  0xef, 0x0e, 0xfd, 0xf7, 0x0a, 0x0a, 0x10, 0xf2, 0xf3, 0x04, 0x02, 0xfc,
  0x12, 0x0d, 0x0c, 0x05, 0x10, 0x02, 0x0d, 0x04, 0xfd, 0xfa, 0x02, 0x07,
  0x04, 0xff, 0x06, 0x03, 0xfe, 0xfe, 0x04, 0xf0, 0xff, 0xf5, 0xf8, 0xff,
  0xff, 0xfa, 0x08, 0x05, 0xfb, 0x08, 0xfd, 0xfb, 0xf4, 0x03, 0xfa, 0x08,
  0x02, 0x08, 0xfe, 0x06, 0x07, 0x01, 0x02, 0xff, 0x05, 0x03, 0x0a, 0x0e,
  0xfa, 0xf9, 0xfc, 0xf9, 0x02, 0xfe, 0x08, 0xfd, 0xf4, 0x05, 0xfd, 0x01,
  0x01, 0xfd, 0xf6, 0xfa, 0x02, 0x04, 0xf9, 0x07, 0xfb, 0x07, 0x02, 0x00,
  0x06, 0xfd, 0x02, 0x1c, 0xdf, 0xf8, 0xf0, 0xf6, 0x0e, 0xe3, 0x03, 0xfa,
  0x01, 0xdd, 0xec, 0x15, 0xff, 0x05, 0x01, 0xf6, 0x02, 0xf9, 0xf8, 0x19,
  0x09, 0x00, 0xf1, 0xe6, 0xd9, 0xf4, 0x18, 0x21, 0xeb, 0x21, 0x1a, 0xe3,
  0x24, 0x04, 0x0d, 0xfc, 0x01, 0xfb, 0xfc, 0xe1, 0x09, 0xf7, 0x02, 0x0f,
  0xea, 0x06, 0xfd, 0x05, 0xf7, 0x15, 0xf1, 0x0c, 0xef, 0xf8, 0x07, 0xfa,
  0xda, 0x08, 0x05, 0xe3, 0xf9, 0xf7, 0xfb, 0xf8, 0x02, 0x12, 0x01, 0x01,
  0xf5, 0x05, 0xfb, 0x04, 0x04, 0x05, 0xf8, 0x11, 0xfd, 0xfa, 0x04, 0x00,
  0xfa, 0xf6, 0x0c, 0xfc, 0xf2, 0xfc, 0xf3, 0xfa, 0xf4, 0xfc, 0x0b, 0xf8,
  0x11, 0xfc, 0x00, 0xfd, 0xf1, 0x05, 0xff, 0x07, 0xf8, 0xf4, 0xf9, 0xf2,
  0x0f, 0xf8, 0xf8, 0xfe, 0x08, 0x11, 0x15, 0xef, 0xff, 0xff, 0xfd, 0x0a,
  0x01, 0x00, 0x10, 0x00, 0xfd, 0x00, 0x02, 0x16, 0x00, 0x00, 0x00, 0x00,
  0x00, 0x00, 0x00, 0x00, 0x00, 0x00, 0x00, 0x00, 0x00, 0x00, 0x00, 0x00,
  0x00, 0x00, 0x00, 0x00, 0x00, 0x00, 0x00, 0x00, 0x00, 0x00, 0x00, 0x00,
  0x00, 0x00, 0x00, 0x00, 0x00, 0x00, 0x00, 0x00, 0x00, 0x00, 0x00, 0x00,
  0x00, 0x00, 0x00, 0x00, 0x00, 0x00, 0x00, 0x00, 0x00, 0x00, 0x00, 0x00,
  0x00, 0x00, 0x00, 0x00, 0x00, 0x00, 0x00, 0x00, 0x00, 0x00, 0x00, 0x00,
  0x00, 0x00, 0x00, 0x00, 0x00, 0x00, 0x00, 0x00, 0x00, 0x00, 0x00, 0x00,
  0x00, 0x00, 0x00, 0x00, 0x00, 0x00, 0x00, 0x00, 0x00, 0x00, 0x00, 0x00,
  0x00, 0x00, 0x00, 0x00, 0x00, 0x00, 0x00, 0x00, 0x00, 0x00, 0x00, 0x00,
  0x00, 0x00, 0x00, 0x00, 0x00, 0x00, 0x00, 0x00, 0x00, 0x00, 0x00, 0x00,
  0x00, 0x00, 0x00, 0x00, 0x00, 0x00, 0x00, 0x00, 0x00, 0x00, 0x00, 0x00,
  0x00, 0x00, 0x00, 0x00, 0x00, 0x00, 0x00, 0x00, 0x00, 0x00, 0x00, 0x00,
  0x00, 0x00, 0x00, 0x00, 0x00, 0x00, 0x00, 0x00, 0x00, 0x00, 0x00, 0x00,
  0x00, 0x00, 0x00, 0x00, 0x00, 0x00, 0x00, 0x00, 0x00, 0x00, 0x00, 0x00,
  0x00, 0x00, 0x00, 0x00, 0x00, 0x00, 0x00, 0x00, 0x00, 0x00, 0x00, 0x00,
  0x00, 0x00, 0x00, 0x00, 0x00, 0x00, 0x00, 0x00, 0x00, 0x00, 0x00, 0x00,
  0x00, 0x00, 0x00, 0x00, 0x00, 0x00, 0x00, 0x00, 0x00, 0x00, 0x00, 0x00,
  0x00, 0x00, 0x00, 0x00, 0x00, 0x00, 0x00, 0x00, 0x00, 0x00, 0x00, 0x00,
  0x00, 0x00, 0x00, 0x00, 0x00, 0x00, 0x00, 0x00, 0x00, 0x00, 0x00, 0x00,
  0x00, 0x00, 0x00, 0x00, 0x00, 0x00, 0x00, 0x00, 0x00, 0x00, 0x00, 0x00,
  0x00, 0x00, 0x00, 0x00, 0x00, 0x00, 0x00, 0x00, 0x00, 0x00, 0x00, 0x00,
  0x00, 0x00, 0x00, 0x00, 0x00, 0x00, 0x00, 0x00, 0x00, 0x00, 0x00, 0x00,
  0x00, 0x00, 0x00, 0x00, 0x00, 0x00, 0x00, 0x00, 0x00, 0x00, 0x00, 0x00,
  0x00, 0x00, 0x00, 0x00, 0x00, 0x00, 0x00, 0x00, 0x00, 0x00, 0x00, 0x00,
  0x00, 0x00, 0x00, 0x00, 0x00, 0x00, 0x00, 0x00, 0x00, 0x00, 0x00, 0x00,
  0x00, 0x00, 0x00, 0x00, 0x00, 0x00, 0x00, 0x00, 0x00, 0x00, 0x00, 0x00,
  0x00, 0x00, 0x00, 0x00, 0x00, 0x00, 0x00, 0x00, 0x00, 0x00, 0x00, 0x00,
  0x00, 0x00, 0x00, 0x00, 0x00, 0x00, 0x00, 0x00, 0x00, 0x00, 0x00, 0x00,
  0x00, 0x00, 0x00, 0x00, 0x00, 0x00, 0x00, 0x00, 0x00, 0x00, 0x00, 0x00,
  0x00, 0x00, 0x00, 0x00, 0x00, 0x00, 0x00, 0x00, 0x00, 0x00, 0x00, 0x00,
  0x00, 0x00, 0x00, 0x00, 0x00, 0x00, 0x00, 0x00, 0x00, 0x00, 0x00, 0x00,
  0x00, 0x00, 0x00, 0x00, 0x00, 0x00, 0x00, 0x00, 0x00, 0x00, 0x00, 0x00,
  0x00, 0x00, 0x00, 0x00, 0x00, 0x00, 0x00, 0x00, 0x00, 0x00, 0x00, 0x00,
  0x00, 0x00, 0x00, 0x00, 0x00, 0x00, 0x00, 0x00, 0x00, 0x00, 0x00, 0x00,
  0x00, 0x00, 0x00, 0x00, 0x00, 0x00, 0x00, 0x00, 0x00, 0x00, 0x00, 0x00,
  0x00, 0x00, 0x00, 0x00, 0x00, 0x00, 0x00, 0x00, 0x00, 0x00, 0x00, 0x00,
  0x00, 0x00, 0x00, 0x00, 0x00, 0x00, 0x00, 0x00, 0x00, 0x00, 0x00, 0x00,
  0x00, 0x00, 0x00, 0x00, 0x00, 0x00, 0x00, 0x00, 0x00, 0x00, 0x00, 0x00,
  0x00, 0x00, 0x00, 0x00, 0x00, 0x00, 0x00, 0x00, 0x00, 0x00, 0x00, 0x00,
  0x00, 0x00, 0x00, 0x00, 0x00, 0x00, 0x00, 0x00, 0x00, 0x00, 0x00, 0x00,
  0x00, 0x00, 0x00, 0x00, 0x00, 0x00, 0x00, 0x00, 0x00, 0x00, 0x00, 0x00,
  0x00, 0x00, 0x00, 0x00, 0x00, 0x00, 0x00, 0x00, 0x00, 0x00, 0x00, 0x00,
  0x00, 0x00, 0x00, 0x00, 0x00, 0x00, 0x00, 0x00, 0x00, 0x00, 0x00, 0x00,
  0x00, 0x00, 0x00, 0x00, 0x00, 0x00, 0x00, 0x00, 0x00, 0x00, 0x00, 0x00,
  0x00, 0x00, 0x00, 0x00, 0x00, 0x00, 0x00, 0x00, 0x00, 0x00, 0x00, 0x00,
  0x00, 0x00, 0x00, 0x00, 0x00, 0x00, 0x00, 0x00, 0x00, 0x00, 0x00, 0x00,
  0x00, 0x00, 0x00, 0x00, 0x00, 0x00, 0x00, 0x00, 0x00, 0x00, 0x00, 0x00,
  0x00, 0x00, 0x00, 0x00, 0x00, 0x00, 0x00, 0x00, 0x00, 0x00, 0x00, 0x00,
  0x00, 0x00, 0x00, 0x00, 0x00, 0x00, 0x00, 0x00, 0x00, 0x00, 0x00, 0x00,
  0x00, 0x00, 0x00, 0x00, 0x00, 0x00, 0x00, 0x00, 0x00, 0x00, 0x00, 0x00,
  0x00, 0x00, 0x00, 0x00, 0x00, 0x00, 0x00, 0x00, 0x00, 0x00, 0x00, 0x00,
  0x00, 0x00, 0x00, 0x00, 0x00, 0x00, 0x00, 0x00, 0x00, 0x00, 0x00, 0x00,
  0x00, 0x00, 0x00, 0x00, 0x00, 0x00, 0x00, 0x00, 0x00, 0x00, 0x00, 0x00,
  0x00, 0x00, 0x00, 0x00, 0x00, 0x00, 0x00, 0x00, 0x00, 0x00, 0x00, 0x00,
  0x00, 0x00, 0x00, 0x00, 0x00, 0x00, 0x00, 0x00, 0x00, 0x00, 0x00, 0x00,
  0x00, 0x00, 0x00, 0x00, 0x00, 0x00, 0x00, 0x00, 0x00, 0x00, 0x00, 0x00,
  0x00, 0x00, 0x00, 0x00, 0x00, 0x00, 0x00, 0x00, 0x00, 0x00, 0x00, 0x00,
  0x00, 0x00, 0x00, 0x00, 0x00, 0x00, 0x00, 0x00, 0x00, 0x00, 0x00, 0x00,
  0x00, 0x00, 0x00, 0x00, 0x00, 0x00, 0x00, 0x00, 0x00, 0x00, 0x00, 0x00,
  0x00, 0x00, 0x00, 0x00, 0x00, 0x00, 0x00, 0x00, 0x00, 0x00, 0x00, 0x00,
  0x00, 0x00, 0x00, 0x00, 0x00, 0x00, 0x00, 0x00, 0x00, 0x00, 0x00, 0x00,
  0x00, 0x00, 0x00, 0x00, 0x00, 0x00, 0x00, 0x00, 0x00, 0x00, 0x00, 0x00,
  0x00, 0x00, 0x00, 0x00, 0x00, 0x00, 0x00, 0x00, 0x00, 0x00, 0x00, 0x00,
  0x00, 0x00, 0x00, 0x00, 0x00, 0x00, 0x00, 0x00, 0x00, 0x00, 0x00, 0x00,
  0x00, 0x00, 0x00, 0x00, 0x00, 0x00, 0x00, 0x00, 0xd6, 0x04, 0xe5, 0xdf,
  0xf1, 0x0d, 0xd2, 0xfc, 0x00, 0x00, 0x0c, 0x0a, 0x05, 0xfa, 0x05, 0x18,
  0xd5, 0x10, 0x0a, 0xfc, 0xfe, 0x0e, 0x01, 0x01, 0xfc, 0xfa, 0xeb, 0xf2,
  0x0a, 0xe5, 0x07, 0xcc, 0x04, 0x07, 0x06, 0x1b, 0x05, 0x00, 0x20, 0xf9,
  0x10, 0xf4, 0xe1, 0x04, 0xf7, 0x00, 0xfc, 0x05, 0x05, 0x0b, 0x0d, 0x1d,
  0xfb, 0x0b, 0x01, 0x06, 0xe2, 0xd7, 0x07, 0xf6, 0x09, 0xfe, 0x12, 0x08,
  0xfd, 0x09, 0xef, 0x16, 0xec, 0x07, 0x03, 0xfb, 0xf9, 0xfd, 0xe2, 0x01,
  0x08, 0xf8, 0xf1, 0x17, 0x08, 0x19, 0x00, 0x02, 0x19, 0xe7, 0x06, 0xfe,
  0x07, 0x00, 0x0b, 0xef, 0x0a, 0xe6, 0x0e, 0xd0, 0x11, 0x00, 0x1b, 0x12,
  0x03, 0x1b, 0xdc, 0xef, 0x09, 0xfc, 0x00, 0xfe, 0xfe, 0x03, 0x0c, 0x02,
  0x0a, 0xf3, 0x07, 0xe0, 0x03, 0x00, 0x0a, 0x09, 0xe4, 0x11, 0x04, 0x01,
  0x05, 0x18, 0xf2, 0x1a, 0x26, 0x05, 0x2d, 0xff, 0x15, 0x23, 0x14, 0x0a,
  0xf2, 0xf6, 0x15, 0xc7, 0xff, 0x09, 0xff, 0x05, 0x0f, 0xee, 0xf5, 0xf5,
  0x09, 0xe8, 0x11, 0xe0, 0xe4, 0xf3, 0x2d, 0x15, 0xdb, 0xff, 0xe8, 0xff,
  0xd4, 0xef, 0xe1, 0x11, 0xd4, 0x0e, 0x16, 0xfc, 0xe7, 0x13, 0x0d, 0xfd,
  0xfb, 0x06, 0x06, 0xe7, 0xdc, 0xfa, 0xda, 0x1f, 0xf5, 0xef, 0xc9, 0xdb,
  0x17, 0x07, 0x00, 0x17, 0x05, 0x16, 0xee, 0xf3, 0x15, 0x1a, 0x08, 0x0c,
  0x0c, 0x1f, 0x09, 0x0c, 0xea, 0x08, 0x11, 0x00, 0x0a, 0x0a, 0xe9, 0xd9,
  0xff, 0x1d, 0x0c, 0x0d, 0x0e, 0xfa, 0x1f, 0x1e, 0x02, 0x05, 0x03, 0xf4,
  0x0f, 0x0d, 0x06, 0xf9, 0x16, 0x07, 0x0e, 0x0e, 0x12, 0x08, 0x0a, 0x15,
  0x01, 0x05, 0x09, 0xf1, 0xfb, 0x12, 0xf8, 0xfe, 0xff, 0x04, 0xf6, 0xff,
  0x07, 0x15, 0x07, 0xff, 0x04, 0xf4, 0xfc, 0x0f, 0xfd, 0x01, 0x10, 0xfc,
  0x01, 0xda, 0x70, 0x03, 0xde, 0xee, 0x3b, 0x10, 0xfa, 0xc0, 0x32, 0xf1,
  0x11, 0xf4, 0xdc, 0xd2, 0x42, 0xd3, 0xf9, 0x06, 0x2e, 0xdd, 0xd2, 0xcd,
  0xce, 0x2f, 0xf9, 0x66, 0xf3, 0x17, 0xf2, 0x48, 0xf5, 0xfa, 0xf6, 0x0b,
  0xf3, 0x50, 0x7b, 0x24, 0x15, 0x29, 0x4e, 0xed, 0x09, 0xe9, 0x41, 0xee,
  0x29, 0x12, 0xec, 0xed, 0xf6, 0x0b, 0xd9, 0x06, 0x19, 0x52, 0xef, 0x67,
  0xc4, 0x44, 0xeb, 0x02, 0x05, 0xec, 0x26, 0x2e, 0xfa, 0x22, 0x02, 0x14,
  0x16, 0x2d, 0x0b, 0x04, 0x1c, 0xe3, 0xe6, 0xfc, 0x10, 0xf5, 0x24, 0x0a,
  0x0f, 0x14, 0xf2, 0x14, 0x28, 0x24, 0xf2, 0x0b, 0x47, 0x00, 0x0f, 0x14,
  0x2e, 0x2d, 0x26, 0xfe, 0x10, 0x0c, 0x08, 0x13, 0xfe, 0xf5, 0x0e, 0x16,
  0xf9, 0x1b, 0x17, 0xff, 0x04, 0xf3, 0x20, 0x20, 0x49, 0x11, 0x06, 0x22,
  0x04, 0x19, 0xf6, 0x07, 0x07, 0x0e, 0x25, 0x23, 0x1d, 0xeb, 0x33, 0xd7,
  0xe6, 0x03, 0x32, 0x1e, 0x03, 0xfa, 0x16, 0xfe, 0x05, 0x04, 0x01, 0x01,
  0x39, 0xeb, 0x03, 0xfb, 0xf4, 0xf7, 0x0d, 0xeb, 0x03, 0x01, 0x10, 0x24,
  0xfc, 0xea, 0xff, 0xd2, 0xfb, 0xfd, 0x0a, 0x05, 0x00, 0x01, 0xd3, 0x24,
  0x04, 0x17, 0xcc, 0x02, 0x08, 0xff, 0xf9, 0x01, 0xf8, 0xf7, 0x01, 0x10,
  0xff, 0xfe, 0x04, 0x04, 0xe2, 0xf2, 0x04, 0xd4, 0xff, 0x30, 0xfe, 0xff,
  0xe1, 0x00, 0x03, 0xe5, 0x08, 0xff, 0x0f, 0x04, 0xff, 0x00, 0x2f, 0x01,
  0x06, 0xeb, 0xf2, 0x06, 0x37, 0x08, 0xf2, 0xf7, 0xd7, 0x0e, 0x06, 0xe7,
  0xff, 0x08, 0x07, 0x23, 0x05, 0xe0, 0x07, 0x06, 0x05, 0x02, 0x0e, 0x08,
  0xff, 0x21, 0x0b, 0xe8, 0x00, 0xfb, 0x09, 0xfa, 0xf5, 0x03, 0x21, 0x00,
  0x02, 0xf1, 0xfd, 0xf0, 0x03, 0x05, 0xfb, 0x07, 0x0c, 0x21, 0xff, 0xe8,
  0x02, 0x38, 0x0e, 0x02, 0xe2, 0x09, 0x25, 0x06, 0x39, 0xd7, 0x14, 0x02,
  0x18, 0x0c, 0x30, 0xde, 0xd6, 0x39, 0xfd, 0xea, 0x17, 0xcb, 0x24, 0x0c,
  0x02, 0x41, 0x07, 0x37, 0x31, 0x2d, 0x0a, 0x1c, 0x17, 0xe2, 0x03, 0x29,
  0x2e, 0x0e, 0x0c, 0xfb, 0x27, 0x13, 0x14, 0x0e, 0x0c, 0xec, 0x20, 0xee,
  0x05, 0xf4, 0x0c, 0x0b, 0x2c, 0xe9, 0xe3, 0x20, 0x33, 0xe5, 0x0b, 0x08,
  0x32, 0x29, 0x16, 0x22, 0xe0, 0x24, 0x17, 0x30, 0x0d, 0x02, 0x14, 0x1b,
  0x16, 0xe0, 0x0c, 0x1a, 0x08, 0xff, 0x15, 0xfa, 0xd4, 0xfd, 0x05, 0xdd,
  0x04, 0xca, 0x04, 0x16, 0x1a, 0x0a, 0xf7, 0xfa, 0x0d, 0xfa, 0xde, 0x16,
  0x00, 0x08, 0x0e, 0x1c, 0xfe, 0x00, 0x05, 0xf6, 0xff, 0xfc, 0x19, 0x19,
  0xf6, 0xf3, 0xff, 0x02, 0x00, 0xfd, 0x17, 0x14, 0x04, 0xfb, 0xfb, 0xee,
  0xfa, 0x04, 0x0d, 0x04, 0x04, 0x16, 0x07, 0x0f, 0x19, 0x11, 0x1a, 0x0f,
  0x13, 0x2b, 0x30, 0xf9, 0x1e, 0x0f, 0x21, 0x0a, 0xc8, 0xea, 0x21, 0xed,
  0xf6, 0x23, 0xcb, 0xe8, 0x21, 0x0d, 0xdf, 0xe0, 0x02, 0x22, 0xe2, 0xea,
  0x2b, 0x3b, 0x09, 0x1f, 0x30, 0xf7, 0x2a, 0x34, 0xf8, 0x33, 0xe8, 0xf4,
  0xf8, 0x1a, 0x49, 0x20, 0x06, 0x26, 0x2b, 0xfa, 0x32, 0xe0, 0x15, 0x31,
  0xf1, 0x13, 0x02, 0x2a, 0x2c, 0x18, 0xd5, 0xfe, 0x06, 0x31, 0x04, 0x27,
  0xfc, 0x16, 0xe5, 0x3c, 0x05, 0x0b, 0xff, 0x03, 0xf6, 0xd6, 0xfe, 0x02,
  0x03, 0xf2, 0xfe, 0x10, 0xff, 0xfe, 0xe0, 0x2c, 0xfb, 0x29, 0xf6, 0x02,
  0xfe, 0x00, 0x08, 0x10, 0x1a, 0xf6, 0xf9, 0xfb, 0x1f, 0xfa, 0xea, 0xfe,
  0xf5, 0x08, 0x00, 0xe5, 0x07, 0xfa, 0xf3, 0xf8, 0xe8, 0x00, 0xfc, 0xd3,
  0x18, 0xf7, 0x02, 0xe9, 0x0b, 0x18, 0x06, 0x22, 0xf5, 0x14, 0xe0, 0xf0,
  0x03, 0xfc, 0xfe, 0xfc, 0xea, 0xf0, 0xe5, 0x15, 0xff, 0x00, 0x02, 0x02,
  0xff, 0xff, 0x00, 0xff, 0x00, 0x00, 0x01, 0x00, 0xff, 0xff, 0x00, 0x00,
  0xfd, 0x02, 0x00, 0x00, 0x03, 0x00, 0xff, 0x01, 0x00, 0xfc, 0x00, 0xfc,
  0x03, 0xfe, 0xff, 0xfe, 0x00, 0x00, 0x00, 0x00, 0x00, 0xfe, 0xff, 0x01,
  0x00, 0xfe, 0x01, 0x00, 0x00, 0xfe, 0xff, 0x00, 0x01, 0xff, 0x00, 0xff,
  0x00, 0x01, 0x00, 0x00, 0xff, 0xfe, 0x00, 0x01, 0x00, 0x00, 0x00, 0x01,
  0xff, 0x00, 0xfe, 0x00, 0x00, 0x00, 0xff, 0x00, 0x00, 0x00, 0x00, 0x00,
  0x00, 0x00, 0x00, 0x00, 0xfd, 0x01, 0x00, 0x00, 0x01, 0x00, 0x00, 0xff,
  0x00, 0x00, 0x00, 0xfe, 0x03, 0x00, 0x00, 0xff, 0x00, 0x00, 0x00, 0x01,
  0x00, 0xff, 0xff, 0x00, 0x00, 0x01, 0x00, 0x00, 0x00, 0x00, 0x00, 0x00,
  0x00, 0x00, 0x00, 0x00, 0x00, 0x00, 0x00, 0x00, 0x00, 0xfe, 0x00, 0xff,
  0x00, 0xff, 0x00, 0xff, 0x02, 0xfd, 0xfc, 0x05, 0x01, 0x08, 0xfd, 0x01,
  0x03, 0xfc, 0x00, 0xff, 0x04, 0x00, 0x08, 0x05, 0x06, 0x00, 0xff, 0x00,
  0xff, 0x01, 0xfc, 0x00, 0xfb, 0x01, 0xfe, 0xf9, 0xfe, 0xff, 0xff, 0xfe,
  0xfa, 0x03, 0xfe, 0x00, 0x03, 0x01, 0xfe, 0xff, 0xff, 0xfe, 0xfc, 0xff,
  0x03, 0xff, 0xff, 0x00, 0xfe, 0x07, 0xfe, 0x05, 0xfe, 0x03, 0x0d, 0x00,
  0x05, 0xfa, 0x04, 0xfb, 0xff, 0xfd, 0xfc, 0xfd, 0x01, 0xfe, 0xfa, 0xfd,
  0x02, 0x00, 0xff, 0xff, 0x00, 0x00, 0x02, 0xff, 0x01, 0xff, 0x00, 0x00,
  0x00, 0x00, 0x00, 0x00, 0x04, 0xff, 0xff, 0x01, 0x00, 0xff, 0xff, 0x01,
  0xff, 0xff, 0x00, 0x01, 0x01, 0x00, 0xff, 0x01, 0xff, 0x02, 0x00, 0x02,
  0x00, 0x01, 0xff, 0x00, 0x00, 0x00, 0xff, 0x00, 0xff, 0xfe, 0xff, 0xff,
  0x01, 0x00, 0x00, 0x00, 0x00, 0xfe, 0x00, 0x01, 0xff, 0xff, 0xfe, 0x01,
  0xff, 0xfe, 0x01, 0x02, 0xff, 0x09, 0x00, 0x03, 0xf2, 0x07, 0x05, 0x02,
  0x09, 0xfa, 0xf9, 0x05, 0xff, 0xf7, 0xfe, 0xff, 0x00, 0xfc, 0xfe, 0x01,
  0xff, 0x02, 0x00, 0xff, 0xf5, 0x01, 0x04, 0xfb, 0x00, 0xf6, 0xfc, 0x02,
  0x02, 0xfc, 0x04, 0x02, 0xff, 0xff, 0x0c, 0x03, 0x05, 0xfe, 0xff, 0x0a,
  0x01, 0x02, 0xf8, 0xff, 0x03, 0x06, 0xf4, 0x00, 0x02, 0xfd, 0xfc, 0xfd,
  0x00, 0x02, 0x01, 0xfe, 0x00, 0x01, 0x00, 0x00, 0xfe, 0xfe, 0x01, 0x00,
  0xff, 0x00, 0xfe, 0xff, 0xff, 0xfd, 0x02, 0xfd, 0x00, 0x00, 0xfd, 0x03,
  0x00, 0xfa, 0x00, 0x00, 0xfe, 0xfd, 0xfd, 0x00, 0xfe, 0x01, 0x04, 0x01,
  0x02, 0xfe, 0x00, 0xf8, 0x02, 0x00, 0x01, 0x03, 0xfc, 0x00, 0x00, 0xfc,
  0xfe, 0xff, 0x02, 0xfe, 0xfc, 0x01, 0x05, 0xfc, 0xff, 0xfe, 0x02, 0xfd,
  0x01, 0x00, 0x04, 0xff, 0x04, 0x00, 0xfd, 0xfd, 0x16, 0x0c, 0x0c, 0xfa,
  0x00, 0x0d, 0x22, 0x19, 0x02, 0xfa, 0xde, 0xfc, 0x04, 0x18, 0x09, 0xff,
  0x23, 0xfd, 0xfd, 0x01, 0x0a, 0x0a, 0x04, 0x03, 0xff, 0x32, 0xe8, 0x17,
  0xfd, 0x17, 0xff, 0x3a, 0xfe, 0xfe, 0x11, 0x03, 0x00, 0x25, 0x27, 0x22,
  0x03, 0x21, 0xe6, 0x01, 0x0f, 0xfe, 0x0e, 0x00, 0xf9, 0x05, 0x02, 0x10,
  0xff, 0x08, 0x04, 0x01, 0x26, 0xfa, 0x01, 0xf3, 0xfe, 0xf1, 0xf9, 0x2d,
  0x15, 0x0d, 0xd4, 0x20, 0x12, 0x0a, 0x26, 0x19, 0xff, 0xfe, 0x31, 0x00,
  0x02, 0x01, 0x02, 0x04, 0x2c, 0x06, 0x18, 0xfe, 0xfe, 0x12, 0xff, 0x09,
  0xff, 0xfc, 0x06, 0x16, 0x02, 0x1e, 0x04, 0xff, 0x07, 0x01, 0x25, 0x05,
  0xfd, 0xfd, 0x27, 0xee, 0x03, 0xff, 0xe8, 0xfa, 0x04, 0x02, 0x25, 0xff,
  0xff, 0x04, 0xfd, 0x2e, 0x01, 0x0c, 0xfe, 0x03, 0x2f, 0x31, 0x00, 0x1e,
  0x01, 0x25, 0x18, 0xe5, 0x09, 0xe1, 0x11, 0xfb, 0x1e, 0xe4, 0x1e, 0x03,
  0xf8, 0x10, 0x0e, 0x03, 0xfb, 0x10, 0xe2, 0x04, 0x1e, 0x15, 0x11, 0xfe,
  0xfd, 0x0c, 0x0e, 0x1d, 0x22, 0x15, 0x08, 0x1f, 0x20, 0x0a, 0x0a, 0x11,
  0x19, 0x07, 0x05, 0xe6, 0x1d, 0x0a, 0xf0, 0x0d, 0xeb, 0xf8, 0x0a, 0xe7,
  0x08, 0xfa, 0x0d, 0x14, 0x21, 0x1d, 0xdd, 0xed, 0x24, 0xef, 0x0a, 0x09,
  0x18, 0x12, 0xfb, 0x17, 0x00, 0x13, 0x09, 0x19, 0xf4, 0xea, 0x0b, 0x06,
  0x03, 0xf6, 0xfc, 0x0e, 0x07, 0xfc, 0x05, 0x11, 0x00, 0x0c, 0xf8, 0xf3,
  0xfd, 0x02, 0xfa, 0x19, 0x02, 0x01, 0x13, 0xf2, 0xf9, 0xf5, 0x0c, 0x01,
  0xf9, 0xf8, 0xf9, 0x10, 0xfb, 0xf1, 0x01, 0x0f, 0xf7, 0x06, 0xff, 0x17,
  0xfe, 0xfe, 0xfd, 0x10, 0xf9, 0xf9, 0xff, 0x0c, 0xfa, 0xf2, 0x0d, 0xfd,
  0x03, 0x01, 0xf9, 0x01, 0xf2, 0x09, 0x08, 0x05, 0x15, 0x08, 0x0b, 0x00,
  0x17, 0x36, 0x27, 0xfa, 0x3a, 0xff, 0x0e, 0x09, 0xd1, 0x10, 0x0a, 0xe0,
  0x18, 0x00, 0xdd, 0xf4, 0x18, 0x0b, 0x28, 0x12, 0x0a, 0x14, 0xe5, 0x18,
  0xe0, 0x22, 0xe9, 0x21, 0x14, 0x10, 0x3d, 0x15, 0x08, 0x2c, 0x26, 0x25,
  0x02, 0x1e, 0x1e, 0x0b, 0xe8, 0x03, 0x1d, 0xf1, 0x21, 0xee, 0x2a, 0xe0,
  0x21, 0x3a, 0xde, 0x1f, 0xf9, 0xe5, 0xf4, 0x19, 0xf8, 0x0f, 0xe0, 0x2a,
  0x03, 0x18, 0xec, 0x1c, 0x01, 0x0f, 0xff, 0x10, 0x0c, 0xde, 0x07, 0x09,
  0xf5, 0xfc, 0xfc, 0xef, 0xf5, 0x15, 0xf6, 0x19, 0xfb, 0x06, 0x02, 0x03,
  0xfa, 0xf8, 0x2c, 0x0c, 0xec, 0xfb, 0x14, 0xfb, 0xf9, 0xfa, 0x0d, 0x00,
  0x00, 0xf2, 0x19, 0xe7, 0x12, 0xf8, 0xf9, 0xf6, 0xfc, 0xe7, 0xf6, 0xfe,
  0xe8, 0xfe, 0x02, 0xfa, 0x3a, 0xf6, 0xe4, 0x02, 0x0d, 0x0b, 0x28, 0x08,
  0x16, 0xfc, 0xf3, 0xfe, 0x23, 0xf9, 0x08, 0x18, 0x05, 0xe8, 0x25, 0xc5,
  0x14, 0xf4, 0x2f, 0xcd, 0xfe, 0x06, 0x0f, 0xff, 0x03, 0xf2, 0xf2, 0xff,
  0xed, 0x08, 0xef, 0x00, 0x41, 0xee, 0xef, 0x04, 0x0c, 0x1f, 0xf9, 0x07,
  0x06, 0x07, 0x03, 0x1f, 0x03, 0x05, 0xe5, 0xfa, 0xfd, 0xee, 0x06, 0x33,
  0xf7, 0x01, 0xd4, 0x00, 0xf3, 0x05, 0x15, 0x00, 0x0a, 0xef, 0xfe, 0x05,
  0x03, 0x02, 0xfd, 0xfa, 0x0b, 0x26, 0x01, 0xed, 0x05, 0x14, 0x04, 0xe8,
  0xed, 0xe9, 0x2b, 0x32, 0xe3, 0xfa, 0xed, 0x3a, 0x02, 0x05, 0x28, 0x02,
  0x02, 0x06, 0x0e, 0xfb, 0x12, 0x02, 0xe7, 0x06, 0x0e, 0xf9, 0xff, 0xfa,
  0x07, 0x31, 0x05, 0xf0, 0xfd, 0x23, 0xfd, 0x1a, 0xfa, 0x00, 0xf6, 0xfa,
  0x03, 0xd9, 0x35, 0xe6, 0xfa, 0xe7, 0xc9, 0x08, 0x08, 0xfe, 0xe3, 0x01,
  0x03, 0xf8, 0x03, 0x26, 0xfe, 0xf4, 0x03, 0x08, 0x0a, 0x30, 0x07, 0x21,
  0x02, 0xd0, 0xe7, 0x1e, 0x2b, 0x31, 0xfc, 0x0b, 0xf8, 0xcb, 0xe0, 0x0b,
  0xf5, 0xfe, 0xea, 0x16, 0x38, 0xce, 0xe0, 0x2c, 0xe6, 0x07, 0x03, 0xe6,
  0x1d, 0xdd, 0x1a, 0x0a, 0x15, 0xd4, 0x39, 0xfd, 0xcc, 0x19, 0x00, 0xe5,
  0x04, 0xe2, 0x1c, 0x22, 0xcd, 0xf5, 0x26, 0x0d, 0x14, 0xfb, 0x10, 0x09,
  0xfa, 0xe7, 0xe0, 0x0d, 0x0c, 0x1f, 0xf8, 0x2b, 0xfc, 0xf2, 0xf3, 0xfa,
  0xd1, 0xfb, 0xdb, 0xe7, 0x0d, 0x0d, 0x2d, 0xfa, 0x0a, 0x31, 0xf0, 0xff,
  0xe5, 0x1f, 0x11, 0x01, 0xe9, 0xfc, 0x0d, 0xdb, 0xe8, 0x0e, 0x12, 0xfd,
  0x04, 0xdf, 0x07, 0xf4, 0x08, 0x13, 0xfe, 0x01, 0x12, 0x1d, 0x32, 0x07,
  0xf3, 0xf5, 0xe9, 0x01, 0xf1, 0x13, 0xf4, 0xdb, 0xef, 0xfb, 0x10, 0x07,
  0x0c, 0xed, 0xfa, 0xf1, 0x02, 0xfa, 0x14, 0x00, 0x0b, 0x1f, 0xce, 0xf6,
  0x18, 0xf4, 0x07, 0x02, 0x06, 0x15, 0x0f, 0xfb, 0xe8, 0x09, 0xea, 0x0d,
  0xe2, 0x2e, 0xd4, 0x0e, 0xd6, 0xee, 0x04, 0xd8, 0xe7, 0x11, 0x03, 0x34,
  0x20, 0xd6, 0x09, 0x0e, 0xe1, 0x39, 0xfa, 0x07, 0x0b, 0x08, 0xfd, 0xd2,
  0xf8, 0x17, 0x2d, 0xe5, 0x15, 0xe9, 0xcc, 0xf4, 0x0c, 0xe9, 0x2c, 0xde,
  0xc8, 0xd6, 0xb5, 0xff, 0x3a, 0x17, 0xd1, 0xdc, 0x09, 0xdf, 0xe2, 0x01,
  0xd4, 0xb3, 0xf0, 0xe6, 0x05, 0x36, 0x03, 0xe1, 0x03, 0xf4, 0xff, 0xeb,
  0xe9, 0xfa, 0x17, 0x13, 0x13, 0x0a, 0x17, 0xeb, 0xf2, 0x2f, 0xed, 0xec,
  0xfe, 0x02, 0x0b, 0xfa, 0x14, 0xf9, 0xd7, 0xef, 0x07, 0x0d, 0xf1, 0x03,
  0x27, 0xec, 0xd4, 0xe6, 0xc1, 0x00, 0xff, 0x0b, 0x01, 0x11, 0x0e, 0x12,
  0x06, 0x11, 0xe5, 0xee, 0xc0, 0x1f, 0x01, 0x18, 0xfe, 0x13, 0x0f, 0xd6,
  0xf1, 0xfb, 0xf3, 0x09, 0xe3, 0xfa, 0x36, 0x0b, 0xf0, 0x16, 0xc2, 0xe8,
  0xee, 0x0b, 0xee, 0x17, 0x29, 0x13, 0x01, 0xef, 0xf7, 0x00, 0xf7, 0xfb,
  0xf9, 0xff, 0x01, 0x01, 0x00, 0x00, 0xfd, 0xff, 0xff, 0xfc, 0x03, 0x00,
  0xee, 0x03, 0xff, 0xfc, 0xfa, 0xfe, 0xff, 0xfb, 0xfe, 0xfe, 0x01, 0x0c,
  0xfe, 0xfb, 0x00, 0xf3, 0xff, 0x00, 0xfd, 0x01, 0x00, 0xf6, 0xf6, 0xf4,
  0xff, 0xfa, 0xfa, 0x00, 0xfd, 0xff, 0xfa, 0xff, 0x00, 0x02, 0x00, 0xfa,
  0x00, 0x00, 0xff, 0x01, 0xfb, 0xf5, 0x00, 0xf8, 0xfe, 0x00, 0xfb, 0x03,
  0xf5, 0xfe, 0xfc, 0xf2, 0xfc, 0x00, 0xf8, 0xf4, 0x00, 0x00, 0xfa, 0x00,
  0x04, 0xff, 0xff, 0x02, 0xf9, 0x05, 0xff, 0x01, 0xf9, 0xfb, 0xff, 0x07,
  0x01, 0xfa, 0x00, 0xf4, 0x01, 0xff, 0x02, 0xfc, 0x00, 0x00, 0x01, 0x01,
  0x01, 0xf7, 0xf7, 0xff, 0x02, 0x01, 0xf7, 0x00, 0xfd, 0x00, 0xf6, 0x00,
  0x01, 0xfd, 0x01, 0xfa, 0x00, 0x00, 0x01, 0x01, 0xfc, 0x01, 0x00, 0xfa,
  0x00, 0xf9, 0xfc, 0xf8, 0xff, 0x06, 0x0d, 0x03, 0x0d, 0xf9, 0x0d, 0xff,
  0xf4, 0xfb, 0x06, 0xf8, 0x00, 0xfa, 0x16, 0xfc, 0x0c, 0xff, 0xf8, 0xee,
  0x10, 0xf3, 0xf6, 0x00, 0xe8, 0xf8, 0xf6, 0x06, 0xfd, 0x0b, 0xf7, 0xfd,
  0xfc, 0xfe, 0x08, 0x08, 0xeb, 0x02, 0xf0, 0x08, 0xf4, 0x01, 0x19, 0xf9,
  0x11, 0xf4, 0x0e, 0x09, 0x01, 0x04, 0x01, 0xfd, 0x03, 0xf9, 0xfd, 0xf9,
  0xff, 0x01, 0xf0, 0x0c, 0x0c, 0x0a, 0x05, 0x01, 0x04, 0xf9, 0x04, 0x05,
  0x0f, 0x04, 0x12, 0x07, 0xf8, 0xfe, 0x08, 0xfc, 0x05, 0x0c, 0xff, 0x06,
  0x05, 0x05, 0x04, 0x0e, 0x03, 0x0c, 0x05, 0x03, 0xfe, 0x06, 0xfc, 0x08,
  0x02, 0x01, 0x03, 0x09, 0xfc, 0x0a, 0x07, 0xfa, 0xf1, 0x07, 0x00, 0x02,
  0xff, 0xff, 0x08, 0x07, 0x0b, 0xfa, 0x10, 0x06, 0x00, 0x06, 0xf6, 0x03,
  0x08, 0x04, 0x08, 0x02, 0x0c, 0x01, 0xf5, 0x05, 0xf9, 0x05, 0x00, 0x09,
  0xfe, 0xf6, 0x03, 0xfb, 0xf7, 0xef, 0x02, 0x05, 0x0c, 0x02, 0x0f, 0xf5,
  0xff, 0xe7, 0x01, 0xff, 0xff, 0xf4, 0xf9, 0xef, 0xff, 0xf1, 0xf4, 0xff,
  0xf8, 0x03, 0xf4, 0x06, 0xeb, 0x04, 0xff, 0x05, 0xf7, 0x05, 0x03, 0x0d,
  0x08, 0xfa, 0x07, 0xff, 0x05, 0x00, 0x06, 0xf8, 0xfd, 0xef, 0x0b, 0xf0,
  0x01, 0x02, 0xf1, 0xff, 0xf8, 0xee, 0xea, 0xf6, 0xff, 0x0c, 0xff, 0xff,
  0xf9, 0x00, 0xfd, 0x0b, 0xfc, 0xf5, 0x05, 0x01, 0x00, 0xfc, 0x05, 0xfd,
  0xff, 0xfe, 0xff, 0x04, 0xfb, 0xfd, 0xf7, 0x01, 0x00, 0xf6, 0x02, 0x09,
  0xfc, 0xf8, 0xff, 0x04, 0x05, 0x05, 0x02, 0x02, 0x09, 0x00, 0xff, 0x00,
  0x08, 0x02, 0x00, 0x01, 0xff, 0xfc, 0x02, 0x03, 0x04, 0xfa, 0x02, 0xfe,
  0xfa, 0x03, 0xfe, 0x02, 0x06, 0xfa, 0x09, 0x00, 0x0c, 0xfd, 0x03, 0x02,
  0x01, 0xff, 0xfe, 0x03, 0xf7, 0xff, 0x03, 0x06, 0x04, 0x01, 0x0b, 0xf0,
  0xfa, 0x00, 0xf6, 0x02, 0x00, 0x00, 0xf7, 0x00, 0xfd, 0xfb, 0xfe, 0x00,
  0xfb, 0xff, 0x04, 0x00, 0x03, 0xf9, 0x04, 0x0c, 0x00, 0xfa, 0x09, 0xfa,
  0x00, 0x08, 0x00, 0xf4, 0x00, 0x00, 0x0a, 0x00, 0x00, 0xf5, 0xf8, 0xf9,
  0xfd, 0x06, 0xec, 0x00, 0x00, 0x00, 0xfc, 0x00, 0x00, 0x0c, 0x00, 0xf4,
  0x00, 0x00, 0x01, 0x00, 0x09, 0xe2, 0x00, 0xee, 0x00, 0x11, 0x0b, 0x02,
  0xeb, 0xff, 0xf7, 0xf0, 0x01, 0x00, 0x02, 0xe5, 0x00, 0x00, 0xf5, 0x00,
  0xff, 0xfc, 0x02, 0x00, 0x11, 0xfe, 0xfd, 0x00, 0xf7, 0x00, 0xfd, 0xf7,
  0x00, 0xfd, 0xfe, 0xf6, 0x00, 0xed, 0x00, 0xed, 0x00, 0x00, 0xf7, 0x00,
  0x00, 0xe7, 0xe5, 0x0a, 0x00, 0x0d, 0xe0, 0x00, 0x00, 0x00, 0x11, 0x00,
  0x00, 0x07, 0x00, 0x0b, 0x00, 0x00, 0x00, 0x02, 0x07, 0x18, 0x00, 0xf7,
  0x00, 0xdf, 0x05, 0xf0, 0xf1, 0x09, 0xfe, 0xf9, 0x15, 0x18, 0x09, 0xf4,
  0x1d, 0xfe, 0xf6, 0x0c, 0x07, 0xf0, 0x08, 0xfe, 0x05, 0xe0, 0x08, 0xfb,
  0xf4, 0xe7, 0xef, 0xf8, 0xf4, 0xfc, 0x19, 0x02, 0xfa, 0xff, 0x0b, 0x07,
  0x02, 0xea, 0xf0, 0xe9, 0xf0, 0xff, 0x0f, 0x01, 0x0f, 0x05, 0x0a, 0x01,
  0xfa, 0x06, 0xf9, 0xfc, 0x14, 0x16, 0xf8, 0xec, 0x1c, 0x09, 0xff, 0x01,
  0xe8, 0x02, 0xec, 0x07, 0x15, 0x09, 0x06, 0x0d, 0xfa, 0x0a, 0xfe, 0xff,
  0x0c, 0xfc, 0x04, 0xf9, 0x0a, 0x00, 0xf5, 0x05, 0xfd, 0xfa, 0x00, 0x06,
  0x02, 0x05, 0xf6, 0x02, 0xfd, 0x04, 0x05, 0xfb, 0x04, 0xfe, 0x0f, 0x08,
  0x04, 0xfb, 0xfa, 0xf3, 0x09, 0xfb, 0x08, 0x04, 0xf3, 0xfc, 0xee, 0xf7,
  0xfb, 0x02, 0x07, 0xfc, 0xfd, 0xfa, 0xf9, 0x07, 0x08, 0xf9, 0x0e, 0x0d,
  0x05, 0xff, 0xff, 0x00, 0xfc, 0x0d, 0x00, 0xff, 0xf3, 0xfe, 0x09, 0x02,
  0x03, 0x1b, 0x00, 0xed, 0x17, 0xf1, 0xfd, 0x03, 0x1e, 0x1d, 0xfa, 0xed,
  0x05, 0x08, 0xfb, 0xdb, 0x00, 0x08, 0x1a, 0xfd, 0xf2, 0x12, 0x17, 0xf4,
  0x0e, 0x01, 0xf9, 0x03, 0xe6, 0xf6, 0xf4, 0xf9, 0xe9, 0x10, 0xe9, 0xe5,
  0xf9, 0xf9, 0x09, 0x02, 0x15, 0xf8, 0xfc, 0xed, 0x16, 0xf2, 0x10, 0x0b,
  0x1f, 0xe5, 0xf7, 0x16, 0x15, 0x00, 0xe4, 0x06, 0xfb, 0x08, 0xf4, 0x00,
  0xe3, 0x03, 0xe6, 0x10, 0xfd, 0xfe, 0x02, 0xfb, 0xf6, 0x00, 0x0a, 0xfd,
  0xfc, 0x05, 0x00, 0xec, 0xff, 0xf8, 0x0d, 0x11, 0xfe, 0xf4, 0xf6, 0x00,
  0x01, 0xfd, 0xfa, 0xfd, 0x01, 0xf3, 0x0a, 0xfd, 0x04, 0x04, 0xf6, 0x02,
  0x07, 0xf1, 0x03, 0x03, 0x0b, 0x06, 0x01, 0x01, 0x0c, 0xf8, 0xfb, 0x0c,
  0x04, 0x03, 0x0a, 0x0a, 0x12, 0xe8, 0xe7, 0xf8, 0x02, 0x02, 0xfd, 0x06,
  0xfc, 0x01, 0x0d, 0xff, 0xee, 0x01, 0xf5, 0xfe, 0xfd, 0x03, 0xe5, 0x03,
  0x0a, 0x01, 0x0c, 0x03, 0x00, 0x00, 0xf6, 0x00, 0xfd, 0xfb, 0x07, 0x00,
  0x00, 0x01, 0xff, 0x00, 0x0a, 0xfb, 0xfc, 0x03, 0x00, 0xfe, 0xfc, 0x0b,
  0x01, 0xf7, 0x00, 0xf2, 0x00, 0xfd, 0x06, 0x01, 0x00, 0x05, 0xfe, 0xff,
  0x02, 0x0d, 0xff, 0x00, 0x01, 0xff, 0xfe, 0x00, 0x00, 0x05, 0x00, 0xfa,
  0x00, 0xfd, 0xff, 0x00, 0xf9, 0x0d, 0x01, 0x10, 0x00, 0xf9, 0xfb, 0xfc,
  0x01, 0x03, 0x11, 0x05, 0x06, 0x04, 0x01, 0xfa, 0x00, 0x00, 0xfe, 0xff,
  0xff, 0x02, 0x03, 0x00, 0x12, 0x07, 0x00, 0x00, 0x05, 0xff, 0xf9, 0xff,
  0x00, 0x04, 0x05, 0xf3, 0x00, 0x09, 0x00, 0x05, 0x00, 0x01, 0x02, 0xff,
  0x00, 0x05, 0x03, 0x05, 0xfd, 0xfb, 0x04, 0x00, 0x01, 0x00, 0x00, 0x00,
  0x00, 0x00, 0x00, 0xf9, 0x01, 0x02, 0xff, 0x00, 0x05, 0xfd, 0x01, 0xfe,
  0x00, 0x0e, 0x00, 0xf9, 0x06, 0xf1, 0xef, 0xf6, 0xf4, 0xfb, 0xf4, 0x08,
  0x03, 0xfe, 0x14, 0x02, 0xfd, 0xfd, 0xfb, 0xfd, 0x07, 0x0b, 0x03, 0xe9,
  0x02, 0x04, 0xfc, 0xf7, 0x12, 0x08, 0xef, 0xf3, 0xff, 0xff, 0xf9, 0xf8,
  0x05, 0xf8, 0xfa, 0xfd, 0x12, 0x06, 0x0c, 0x07, 0x13, 0xf7, 0xfd, 0xff,
  0x0f, 0xfd, 0xfb, 0x00, 0x0b, 0xed, 0xfc, 0xe9, 0xf0, 0xfc, 0xf4, 0xf9,
  0x11, 0x0e, 0x13, 0xfe, 0x00, 0xf6, 0x0f, 0x05, 0x00, 0x04, 0x08, 0xf5,
  0xf0, 0x0d, 0x0c, 0x01, 0xfe, 0x00, 0x06, 0xff, 0x05, 0x08, 0xf6, 0xfd,
  0x00, 0x06, 0x0c, 0xf6, 0xfe, 0x0a, 0xfb, 0xfe, 0x03, 0xf6, 0x09, 0xfd,
  0x05, 0x00, 0x02, 0xfd, 0x08, 0x06, 0x05, 0xff, 0x09, 0x02, 0xf6, 0x06,
  0x08, 0xf6, 0xfd, 0xf7, 0x02, 0xfc, 0x09, 0x03, 0xfb, 0x04, 0x09, 0xf2,
  0x05, 0x02, 0xfb, 0x02, 0x06, 0xfa, 0x0b, 0xfe, 0x04, 0x09, 0x04, 0x04,
  0xff, 0xff, 0xff, 0x09, 0x0c, 0x0a, 0x02, 0x01, 0x0e, 0xfc, 0x01, 0xf7,
  0xfb, 0x02, 0xf5, 0xf9, 0x00, 0xff, 0x08, 0x0a, 0xff, 0xf9, 0x0b, 0xe5,
  0x0c, 0xf1, 0xfb, 0x0b, 0xef, 0xff, 0xf9, 0x05, 0xec, 0x01, 0x08, 0x1b,
  0xf0, 0xfd, 0xf8, 0xfe, 0x18, 0x00, 0x12, 0x04, 0xf5, 0xfe, 0xfd, 0x0e,
  0x0b, 0x02, 0xf0, 0xfd, 0xf4, 0xf7, 0xf3, 0x01, 0x08, 0xff, 0xf7, 0xfb,
  0x00, 0xfd, 0x04, 0x0b, 0x00, 0x05, 0xfe, 0x01, 0x04, 0xf9, 0x01, 0x03,
  0xfd, 0xff, 0x00, 0xf7, 0x05, 0xf7, 0x07, 0x11, 0xff, 0x04, 0xf5, 0xf5,
  0x00, 0x05, 0xfc, 0x03, 0x0a, 0xfd, 0xfe, 0x02, 0xf6, 0x00, 0xff, 0xfe,
  0xee, 0xf7, 0xfe, 0x08, 0xfe, 0xff, 0xff, 0xff, 0x06, 0x01, 0x07, 0x0c,
  0xf7, 0x01, 0x04, 0xfe, 0x09, 0x00, 0x0b, 0x03, 0xfb, 0x04, 0x00, 0x0e,
  0xfc, 0xf9, 0x05, 0x01, 0xf7, 0xfe, 0x08, 0xf8, 0x07, 0x06, 0x08, 0x03,
  0x08, 0x05, 0x07, 0x08, 0x01, 0x01, 0x07, 0xff, 0x04, 0x09, 0x0a, 0x05,
  0x07, 0x0a, 0x01, 0x01, 0x06, 0xfc, 0x00, 0x06, 0xff, 0x07, 0x07, 0x07,
  0xff, 0x07, 0x00, 0x07, 0x02, 0x01, 0x05, 0x04, 0x02, 0x07, 0x07, 0x07,
  0xfc, 0x07, 0x08, 0xff, 0x02, 0x00, 0x07, 0xff, 0xfc, 0xfb, 0x01, 0x07,
  0xfc, 0x08, 0x02, 0x02, 0x06, 0x05, 0x05, 0x07, 0x00, 0x07, 0xff, 0x08,
  0x08, 0x0a, 0x04, 0x03, 0x08, 0x06, 0x07, 0x07, 0x00, 0xff, 0x07, 0xfe,
  0xff, 0x07, 0x09, 0x00, 0x06, 0x04, 0x03, 0x01, 0x08, 0x00, 0xfe, 0x06,
  0xfe, 0x07, 0x09, 0x06, 0x00, 0x07, 0xff, 0x06, 0x01, 0x00, 0x09, 0x00,
  0x01, 0x07, 0x08, 0x07, 0xff, 0x06, 0x07, 0x01, 0x06, 0x00, 0x08, 0x00,
  0xff, 0x03, 0xff, 0x06, 0x00, 0x08, 0x02, 0x00, 0x04, 0x05, 0x04, 0x07,
  0x00, 0x07, 0x03, 0x07, 0x05, 0x04, 0x06, 0x01, 0xff, 0x05, 0x00, 0x05,
  0x00, 0x0a, 0x03, 0x00, 0x05, 0x01, 0x05, 0x06, 0xfe, 0x06, 0x02, 0x02,
  0x05, 0xfd, 0x05, 0x02, 0x04, 0x04, 0x03, 0xfe, 0xff, 0x05, 0x03, 0x03,
  0x01, 0x04, 0x04, 0x05, 0x03, 0x04, 0x06, 0x04, 0x08, 0x04, 0x03, 0x03,
  0x05, 0x00, 0x00, 0xff, 0x01, 0x06, 0x08, 0x05, 0x01, 0x09, 0x01, 0x01,
  0x05, 0x01, 0x03, 0x02, 0x03, 0x00, 0x03, 0x03, 0x06, 0x05, 0x07, 0x00,
  0x01, 0x07, 0x07, 0x08, 0x00, 0x02, 0x05, 0x00, 0x08, 0x01, 0x04, 0x09,
  0x08, 0x07, 0x01, 0xfc, 0x05, 0x03, 0x06, 0xff, 0x01, 0x06, 0x06, 0xff,
  0x01, 0x07, 0x01, 0x07, 0x01, 0x02, 0x00, 0x05, 0x01, 0x04, 0x08, 0x04,
  0x09, 0x05, 0x07, 0x06, 0x02, 0x01, 0x03, 0x00, 0x02, 0x01, 0x03, 0x06,
  0x01, 0x02, 0xff, 0xff, 0x03, 0x01, 0x02, 0x02, 0x02, 0x05, 0x05, 0x01,
  0x06, 0xfa, 0xfd, 0x0c, 0x01, 0xec, 0x00, 0x05, 0x03, 0x04, 0x00, 0x05,
  0x01, 0xff, 0x06, 0x11, 0x01, 0x04, 0x00, 0x06, 0x02, 0x07, 0xfc, 0x0d,
  0x06, 0x0d, 0x02, 0xfc, 0x00, 0x00, 0xfd, 0xec, 0x0a, 0xf7, 0x0e, 0xfe,
  0x0b, 0x00, 0xfd, 0xfd, 0xfa, 0x04, 0x00, 0x05, 0x07, 0xf9, 0x07, 0xff,
  0x06, 0x09, 0x04, 0x02, 0x08, 0xfb, 0x02, 0x05, 0x07, 0x03, 0x02, 0x00,
  0x01, 0x01, 0x06, 0x06, 0xff, 0x05, 0xfc, 0x05, 0x04, 0x05, 0xff, 0xfd,
  0x00, 0x04, 0x03, 0x07, 0x05, 0x03, 0x04, 0x06, 0x02, 0x07, 0x04, 0x05,
  0x02, 0x05, 0x05, 0x03, 0x06, 0x03, 0x01, 0x01, 0x08, 0x03, 0x03, 0x00,
  0x04, 0x04, 0x06, 0x06, 0x04, 0x00, 0xff, 0xff, 0x07, 0x00, 0x00, 0x03,
  0x03, 0x04, 0x06, 0x06, 0x07, 0x05, 0x07, 0x02, 0x05, 0x04, 0x07, 0x05,
  0x03, 0x02, 0x05, 0xfe, 0xfe, 0x00, 0x06, 0x00, 0xed, 0x1f, 0xe2, 0xd0,
  0xd2, 0x18, 0xe7, 0xd7, 0xfe, 0x0a, 0xe0, 0x02, 0xed, 0xe7, 0xf6, 0xec,
  0xe0, 0xe8, 0xfb, 0x0b, 0xfe, 0xef, 0xe9, 0xe7, 0x00, 0x09, 0x08, 0xba,
  0x03, 0xf0, 0xf1, 0xd2, 0x00, 0x06, 0xe5, 0xe8, 0xef, 0x00, 0xf9, 0xec,
  0x09, 0x00, 0xe6, 0xfd, 0xef, 0x15, 0xd5, 0xfe, 0x0a, 0xe6, 0x01, 0xf5,
  0x06, 0xf0, 0xf8, 0xff, 0xcb, 0x08, 0xfd, 0xdf, 0x05, 0x02, 0xf5, 0xf9,
  0xd5, 0x0d, 0xe1, 0xbc, 0xe0, 0x0f, 0xdd, 0xef, 0x04, 0xfe, 0xd3, 0x04,
  0x00, 0x04, 0xf3, 0xe8, 0xd9, 0xd7, 0xe4, 0x04, 0xf7, 0xea, 0x0e, 0xdc,
  0xeb, 0xd8, 0x0a, 0xad, 0xdf, 0x03, 0xef, 0xf0, 0xeb, 0xf9, 0xdb, 0xed,
  0xf6, 0xd4, 0xfb, 0xdf, 0xff, 0xec, 0xc5, 0xfd, 0xf2, 0xf8, 0xd1, 0xfc,
  0xf6, 0xec, 0x01, 0xef, 0xf2, 0x01, 0xed, 0xf9, 0xf6, 0xf8, 0x06, 0xba,
  0x04, 0xd4, 0xda, 0xd8, 0x0b, 0xfc, 0xf7, 0x33, 0x27, 0x0e, 0x0d, 0x07,
  0xcd, 0x16, 0xf2, 0x06, 0x0d, 0x03, 0x42, 0xe1, 0x12, 0x0f, 0x04, 0x1c,
  0xfa, 0x2b, 0x03, 0x59, 0x07, 0x1e, 0x2a, 0x06, 0x4a, 0x1f, 0x02, 0x2b,
  0x13, 0x37, 0x41, 0x0b, 0x02, 0x10, 0xda, 0x0a, 0xcc, 0x16, 0x22, 0xdb,
  0x0f, 0x38, 0x0c, 0x3b, 0x1f, 0x22, 0x1d, 0x09, 0x10, 0x0d, 0x2b, 0x11,
  0x05, 0x02, 0x19, 0xeb, 0x03, 0x10, 0xf7, 0x03, 0x03, 0xde, 0xe8, 0x0e,
  0x02, 0xef, 0x03, 0x07, 0x0b, 0x17, 0x02, 0xf7, 0x17, 0x12, 0x05, 0xd8,
  0xf5, 0xf4, 0x0f, 0x04, 0x0a, 0x27, 0x1c, 0x00, 0x33, 0xf9, 0x19, 0x1c,
  0x12, 0xfd, 0x02, 0x00, 0x11, 0x1a, 0x26, 0x1b, 0x40, 0xfe, 0xf2, 0xd4,
  0x29, 0x19, 0x06, 0x0a, 0x41, 0x14, 0x08, 0xf4, 0x28, 0x27, 0x13, 0xfc,
  0xe8, 0x19, 0x22, 0x01, 0x34, 0x12, 0x20, 0xfd, 0xfa, 0xfc, 0x1a, 0x2f,
  0xf4, 0xfc, 0x0a, 0x06, 0x09, 0x33, 0x0f, 0xd7, 0xeb, 0x14, 0xf6, 0x1f,
  0xf8, 0x4a, 0xe9, 0x01, 0xf9, 0xec, 0xe2, 0xed, 0xe7, 0xfd, 0x00, 0xf4,
  0xfb, 0x43, 0x1a, 0xe7, 0x3f, 0x08, 0x23, 0xf4, 0x3c, 0xcf, 0x2e, 0xfa,
  0xe4, 0x1b, 0xf0, 0x1b, 0xeb, 0xf7, 0x10, 0xf1, 0xf2, 0x06, 0xff, 0x44,
  0x3b, 0x1e, 0x24, 0x08, 0x06, 0x2b, 0x10, 0x67, 0xef, 0x03, 0xd5, 0xf9,
  0x2b, 0xf8, 0x48, 0xea, 0x3b, 0x1d, 0x1d, 0x26, 0x37, 0x06, 0x1b, 0x25,
  0x1d, 0x2c, 0x23, 0xfd, 0x07, 0x2e, 0x16, 0xfc, 0x28, 0x34, 0xe9, 0xdf,
  0x2a, 0x01, 0xf2, 0x06, 0xec, 0x1b, 0x1b, 0x0e, 0x0d, 0x2d, 0x06, 0x0e,
  0x33, 0xf0, 0x17, 0xfe, 0x15, 0x31, 0x58, 0x1e, 0x0c, 0x33, 0x47, 0x08,
  0xfe, 0x01, 0x1b, 0x4c, 0x19, 0x0c, 0xea, 0xf2, 0xde, 0x32, 0x30, 0xfa,
  0x24, 0x27, 0x17, 0x2e, 0xf6, 0x26, 0x0f, 0x1c, 0x15, 0xfb, 0xf6, 0x09,
  0x0b, 0x01, 0x1d, 0x19, 0x06, 0xf6, 0x19, 0xf7, 0x05, 0x07, 0xff, 0xf8,
  0xf6, 0xdc, 0x0e, 0xf7, 0xee, 0x13, 0xfe, 0xee, 0x04, 0x18, 0xf8, 0xfb,
  0xef, 0xfe, 0xfa, 0x0d, 0xfe, 0xf1, 0xee, 0xfe, 0xff, 0xfa, 0x19, 0x03,
  0x04, 0xf5, 0x06, 0x03, 0x10, 0xfc, 0x19, 0xff, 0xec, 0xe7, 0xfb, 0x00,
  0xfd, 0xf7, 0x04, 0xff, 0xfe, 0x10, 0xf8, 0xfd, 0xf5, 0xf2, 0x06, 0x15,
  0xf0, 0xff, 0x0d, 0x16, 0x03, 0xf4, 0xfe, 0x13, 0xfe, 0xfd, 0x07, 0x01,
  0xf7, 0xeb, 0xec, 0x01, 0x19, 0xf3, 0x0e, 0xe9, 0xfb, 0x0b, 0xf5, 0xe6,
  0xf9, 0x11, 0xf5, 0x1a, 0xfe, 0x0c, 0x04, 0x0b, 0x04, 0xfd, 0x0b, 0xfe,
  0xf7, 0x10, 0x0c, 0x04, 0xfa, 0x0a, 0xf3, 0xf0, 0x08, 0x07, 0x10, 0xff,
  0xfd, 0xf4, 0xf0, 0x06, 0x01, 0x02, 0xf2, 0xfa, 0x16, 0xf2, 0xf6, 0x02,
  0x02, 0x19, 0x03, 0x07, 0xf7, 0xfe, 0x0a, 0x1a, 0x3e, 0xfb, 0x39, 0x11,
  0x13, 0x17, 0x26, 0x23, 0xdc, 0x17, 0x21, 0xdd, 0x2d, 0xe5, 0x17, 0x19,
  0xf3, 0x3b, 0xde, 0x35, 0x28, 0x27, 0xfc, 0x26, 0x18, 0xe9, 0x07, 0x27,
  0x3a, 0x27, 0x2d, 0xf0, 0x34, 0x14, 0xf1, 0x0e, 0xe8, 0xeb, 0xfe, 0xe7,
  0x31, 0x24, 0x18, 0x0f, 0x36, 0x10, 0x01, 0x0f, 0x22, 0xe1, 0x2f, 0xea,
  0x37, 0x2c, 0x1c, 0x1c, 0xf1, 0x19, 0xec, 0x1f, 0xf0, 0x06, 0xf6, 0x08,
  0x03, 0xf6, 0x01, 0x1b, 0xfe, 0xf4, 0x0b, 0xf9, 0xe1, 0xe6, 0xda, 0xe5,
  0xf5, 0xe1, 0xe3, 0xf5, 0x0f, 0xed, 0xfb, 0xce, 0xdb, 0xe8, 0xfd, 0x0a,
  0xde, 0xf2, 0xdf, 0x08, 0xe3, 0xce, 0xf6, 0xe2, 0xd1, 0xfc, 0xf9, 0x11,
  0xdb, 0x01, 0xf6, 0x07, 0xe4, 0xf2, 0x02, 0xfd, 0xd8, 0xd0, 0xf1, 0xec,
  0xe3, 0xe0, 0xe3, 0xe7, 0xd5, 0x13, 0xef, 0xf1, 0x0b, 0x05, 0xfd, 0xfb,
  0xfa, 0x0b, 0x6a, 0xf3, 0x31, 0x23, 0x1c, 0x10, 0xf6, 0x11, 0x30, 0x11,
  0xff, 0xe4, 0x06, 0xe8, 0x3f, 0xf4, 0xf8, 0x08, 0x1d, 0x05, 0x2a, 0x20,
  0xfc, 0x0e, 0x08, 0x40, 0xf9, 0x21, 0xf8, 0x40, 0x10, 0x32, 0x2c, 0xf2,
  0x31, 0x40, 0x7f, 0x23, 0xe4, 0x1a, 0x4a, 0x07, 0x14, 0x1d, 0x20, 0x06,
  0x08, 0x23, 0xf7, 0x0a, 0x25, 0x1f, 0xdf, 0xde, 0x08, 0x23, 0xf8, 0x59,
  0x0d, 0x31, 0xc5, 0x10, 0xf7, 0xdc, 0xf6, 0x03, 0xfb, 0xe1, 0xee, 0x05,
  0xf9, 0xe7, 0xf0, 0x04, 0xf6, 0xd4, 0xf7, 0xfb, 0xeb, 0x00, 0xe9, 0xf0,
  0xe1, 0xfd, 0x1c, 0xc1, 0xd2, 0xc3, 0xf7, 0xe9, 0xda, 0xec, 0xda, 0xef,
  0xcf, 0xda, 0xee, 0xee, 0xd2, 0xe9, 0xdf, 0xe9, 0x04, 0xff, 0xda, 0x10,
  0xf9, 0xec, 0xd5, 0xef, 0xee, 0xf5, 0x0a, 0x00, 0x05, 0x0a, 0xd0, 0xc5,
  0xf9, 0xf1, 0x15, 0xeb, 0x0e, 0xe0, 0xc7, 0xf2, 0x08, 0x00, 0x15, 0x0a,
  0xff, 0x00, 0x0d, 0x04, 0x00, 0x00, 0x06, 0x00, 0x00, 0xfb, 0xf8, 0x00,
  0xf7, 0xff, 0xff, 0x00, 0xfc, 0xfc, 0xff, 0x01, 0xff, 0xf8, 0xfe, 0x0e,
  0x00, 0xfe, 0x00, 0xfc, 0x00, 0x00, 0x00, 0x00, 0x00, 0x10, 0xf8, 0xfc,
  0xff, 0xf0, 0xf3, 0x00, 0xff, 0x00, 0x0a, 0x00, 0x00, 0x03, 0x00, 0xf2,
  0x00, 0xff, 0x00, 0x00, 0xf8, 0xfa, 0xff, 0xf8, 0x00, 0x10, 0x00, 0xff,
